-- Copyright (C) 2018  Intel Corporation. All rights reserved.
-- Your use of Intel Corporation's design tools, logic functions
-- and other software and tools, and its AMPP partner logic
-- functions, and any output files from any of the foregoing
-- (including device programming or simulation files), and any
-- associated documentation or information are expressly subject
-- to the terms and conditions of the Intel Program License
-- Subscription Agreement, the Intel Quartus Prime License Agreement,
-- the Intel FPGA IP License Agreement, or other applicable license
-- agreement, including, without limitation, that your use is for
-- the sole purpose of programming logic devices manufactured by
-- Intel and sold by Intel or its authorized distributors.  Please
-- refer to the applicable agreement for further details.
 
-- Quartus Prime generated Memory Initialization File (.mif)

WIDTH=16;
DEPTH=1024;

ADDRESS_RADIX=UNS;
DATA_RADIX=BIN;

CONTENT BEGIN
	0	:	0000000000000010;
	1	:	0000000000000100;
	2	:	0000000000000001;
	3	:	0000000000000011;
	4	:	0000000000000001;
	5	:	0000000000000010;
	6	:	0000000000000100;
	7	:	0000000000000010;
	8	:	0000000000000000;
	9	:	0000000000000000;
	10	:	0000000000000001;
	11	:	0000000000000011;
	12	:	0000000000000100;
	13	:	0000000000000000;
	14	:	0000000000000110;
	15	:	0000000000000011;
	16	:	0000000000000011;
	17	:	0000000000000010;
	18	:	0000000000000000;
	19	:	0000000000000011;
	20	:	0000000000000000;
	21	:	0000000000000001;
	22	:	0000000000000010;
	23	:	0000000000000101;
	24	:	0000000000000001;
	25	:	0000000000000100;
	26	:	0000000000000010;
	27	:	0000000000000001;
	28	:	0000000000000100;
	29	:	0000000000000001;
	30	:	0000000000000001;
	31	:	0000000000000011;
	32	:	0000000000000001;
	33	:	0000000000000010;
	34	:	0000000000000000;
	35	:	0000000000000110;
	36	:	0000000000000001;
	37	:	1111111111111100;
	38	:	1111111111111110;
	39	:	0000000000000000;
	40	:	1111111111111111;
	41	:	0000000000000011;
	42	:	0000000000001110;
	43	:	0000000000001111;
	44	:	0000000000000111;
	45	:	0000000000000110;
	46	:	0000000000000011;
	47	:	0000000000000101;
	48	:	0000000000000011;
	49	:	0000000000000100;
	50	:	0000000000000100;
	51	:	0000000000000100;
	52	:	0000000000000010;
	53	:	0000000000000100;
	54	:	0000000000000010;
	55	:	0000000000000000;
	56	:	0000000000000010;
	57	:	0000000000000100;
	58	:	0000000000000100;
	59	:	0000000000000100;
	60	:	0000000000000001;
	61	:	0000000000000100;
	62	:	0000000000000001;
	63	:	0000000000000001;
	64	:	0000000000010010;
	65	:	1111111111010101;
	66	:	1111111111100001;
	67	:	1111111111100010;
	68	:	1111111111100011;
	69	:	1111111111100110;
	70	:	0000000000000011;
	71	:	0000000000100000;
	72	:	0000000001001001;
	73	:	0000000001010010;
	74	:	0000000001000110;
	75	:	0000000001001000;
	76	:	0000000001000000;
	77	:	0000000000111011;
	78	:	0000000000101110;
	79	:	0000000000001101;
	80	:	0000000000001010;
	81	:	0000000000000101;
	82	:	0000000000000000;
	83	:	0000000000000001;
	84	:	0000000000000000;
	85	:	0000000000000010;
	86	:	0000000000000010;
	87	:	0000000000000101;
	88	:	0000000000000001;
	89	:	1111111111111011;
	90	:	0000000000010011;
	91	:	0000000000100100;
	92	:	1111111111110100;
	93	:	1111111110000010;
	94	:	1111111110100101;
	95	:	1111111110100100;
	96	:	1111111110011000;
	97	:	1111111111000111;
	98	:	1111111111100100;
	99	:	0000000000011000;
	100	:	0000000001101111;
	101	:	0000000011001100;
	102	:	0000000101011011;
	103	:	0000000101110100;
	104	:	0000000100111101;
	105	:	0000000011111111;
	106	:	0000000010110000;
	107	:	0000000001101111;
	108	:	0000000000101000;
	109	:	0000000000000001;
	110	:	0000000000000010;
	111	:	0000000000000011;
	112	:	0000000000000011;
	113	:	0000000000000001;
	114	:	0000000000000010;
	115	:	0000000000000100;
	116	:	0000000000001011;
	117	:	0000000000010001;
	118	:	0000000001110001;
	119	:	0000000001110011;
	120	:	1111111110110101;
	121	:	1111111101000100;
	122	:	1111111101000110;
	123	:	1111111110011101;
	124	:	1111111110111101;
	125	:	1111111111000101;
	126	:	1111111110011110;
	127	:	1111111101110000;
	128	:	1111111110101001;
	129	:	0000000001111101;
	130	:	0000000110100010;
	131	:	0000001000000011;
	132	:	0000000111010000;
	133	:	0000000110110010;
	134	:	0000000101101101;
	135	:	0000000100000111;
	136	:	0000000010000100;
	137	:	0000000000001110;
	138	:	0000000000000110;
	139	:	0000000000000001;
	140	:	0000000000000000;
	141	:	0000000000000000;
	142	:	0000000000000001;
	143	:	0000000000000011;
	144	:	0000000000110110;
	145	:	0000000001111010;
	146	:	0000000010110000;
	147	:	0000000011101101;
	148	:	1111111111001110;
	149	:	1111111100011111;
	150	:	1111111101010111;
	151	:	1111111110100011;
	152	:	1111111111110000;
	153	:	1111111111010111;
	154	:	1111111011101011;
	155	:	1111111000000001;
	156	:	1111110110110000;
	157	:	1111111011100010;
	158	:	0000000010011011;
	159	:	0000000111000010;
	160	:	0000000111000001;
	161	:	0000000101111011;
	162	:	0000000011111000;
	163	:	0000000100101100;
	164	:	0000000011100101;
	165	:	0000000000101011;
	166	:	0000000000001001;
	167	:	0000000000000001;
	168	:	0000000000000001;
	169	:	0000000000000101;
	170	:	0000000000000001;
	171	:	0000000000000001;
	172	:	0000000001110001;
	173	:	0000000001101101;
	174	:	0000000010001000;
	175	:	0000000001011101;
	176	:	1111111110110000;
	177	:	1111111101010001;
	178	:	1111111101001001;
	179	:	1111111110110101;
	180	:	1111111110101000;
	181	:	1111111101011010;
	182	:	1111111001100011;
	183	:	1111110001101110;
	184	:	1111101100100111;
	185	:	1111110010100000;
	186	:	1111111111001101;
	187	:	0000000110111100;
	188	:	0000001001001101;
	189	:	0000000111100011;
	190	:	0000000001110111;
	191	:	0000000101011011;
	192	:	0000000101100110;
	193	:	0000000000111110;
	194	:	1111111111111011;
	195	:	0000000000000001;
	196	:	0000000000000000;
	197	:	0000000000000010;
	198	:	0000000000000000;
	199	:	1111111111110110;
	200	:	0000000001100110;
	201	:	0000000000111100;
	202	:	0000000001001101;
	203	:	0000000001011000;
	204	:	1111111101111010;
	205	:	1111111110000001;
	206	:	1111111111001110;
	207	:	1111111110110010;
	208	:	1111111111011001;
	209	:	1111111111110000;
	210	:	1111110111010111;
	211	:	1111101011011100;
	212	:	1111100010011001;
	213	:	1111100101101100;
	214	:	1111110010011000;
	215	:	0000000010100000;
	216	:	0000001001100101;
	217	:	0000000101100001;
	218	:	0000000000101010;
	219	:	0000000011110011;
	220	:	0000000101111101;
	221	:	0000000001101000;
	222	:	1111111111110100;
	223	:	1111111111111110;
	224	:	0000000000000010;
	225	:	0000000000000101;
	226	:	1111111111100111;
	227	:	1111111111010110;
	228	:	1111111110001101;
	229	:	0000000001101000;
	230	:	0000000001111011;
	231	:	1111111111111101;
	232	:	1111111101101001;
	233	:	1111111101100111;
	234	:	1111111110001010;
	235	:	1111111011010101;
	236	:	1111111110110101;
	237	:	0000000010110100;
	238	:	1111111100000000;
	239	:	1111101101000000;
	240	:	1111011100101011;
	241	:	1111011010000101;
	242	:	1111100101011100;
	243	:	1111111100110100;
	244	:	0000001110001101;
	245	:	0000001100000001;
	246	:	0000000010110001;
	247	:	0000000010110110;
	248	:	0000000101001111;
	249	:	0000000011100001;
	250	:	1111111111101010;
	251	:	1111111111111011;
	252	:	0000000000000010;
	253	:	0000000000000011;
	254	:	1111111111011001;
	255	:	1111111110001110;
	256	:	1111111101101000;
	257	:	0000000001100001;
	258	:	0000000000110110;
	259	:	0000000000000010;
	260	:	1111111100000011;
	261	:	1111111001110111;
	262	:	1111111100010100;
	263	:	1111111010111101;
	264	:	1111111111101001;
	265	:	0000000100110100;
	266	:	0000000100010010;
	267	:	1111110111100010;
	268	:	1111011110011111;
	269	:	1111001110111101;
	270	:	1111011000100001;
	271	:	1111110110010011;
	272	:	0000001101000110;
	273	:	0000001011101100;
	274	:	0000001001000011;
	275	:	0000000100001000;
	276	:	0000000101100111;
	277	:	0000000100100001;
	278	:	0000000000010100;
	279	:	0000000000000000;
	280	:	0000000000000010;
	281	:	0000000000000001;
	282	:	1111111111011001;
	283	:	1111111101000011;
	284	:	1111111110111101;
	285	:	0000000010011111;
	286	:	0000000001111101;
	287	:	0000000010100011;
	288	:	1111111110000010;
	289	:	1111111000111101;
	290	:	1111111011100100;
	291	:	1111111111011100;
	292	:	0000000110101100;
	293	:	0000000111101111;
	294	:	0000000110011011;
	295	:	1111111101001100;
	296	:	1111100110011011;
	297	:	1111010000111011;
	298	:	1111010010101010;
	299	:	1111110000110100;
	300	:	0000001001000101;
	301	:	0000001011101000;
	302	:	0000000111000110;
	303	:	0000000110100111;
	304	:	0000000100110111;
	305	:	0000000100000101;
	306	:	0000000000011010;
	307	:	1111111111111101;
	308	:	0000000000000001;
	309	:	0000000000000101;
	310	:	1111111111101100;
	311	:	1111111011110111;
	312	:	1111111110100111;
	313	:	0000000000010010;
	314	:	0000000100000010;
	315	:	0000000001101010;
	316	:	1111111101101010;
	317	:	1111111011010010;
	318	:	1111111001110111;
	319	:	0000000010011000;
	320	:	0000001010101000;
	321	:	0000000110111000;
	322	:	0000000100101100;
	323	:	0000000011000101;
	324	:	1111110001110011;
	325	:	1111011001111011;
	326	:	1111010110100100;
	327	:	1111110010010111;
	328	:	0000000110011000;
	329	:	0000000111011110;
	330	:	0000000110000000;
	331	:	0000000101110010;
	332	:	0000000010000110;
	333	:	0000000010011101;
	334	:	0000000000000101;
	335	:	0000000000000101;
	336	:	0000000000000100;
	337	:	0000000000000000;
	338	:	1111111111110010;
	339	:	1111111100110000;
	340	:	1111111101100100;
	341	:	1111111111100110;
	342	:	0000000011010011;
	343	:	0000000000011011;
	344	:	1111111101011001;
	345	:	1111111011001110;
	346	:	1111111101001000;
	347	:	0000000110001111;
	348	:	0000001110011111;
	349	:	0000000111000010;
	350	:	0000001010101011;
	351	:	0000001001100010;
	352	:	1111111001001100;
	353	:	1111011111101110;
	354	:	1111011100110110;
	355	:	1111110010101101;
	356	:	0000000001000001;
	357	:	0000000010101110;
	358	:	0000000011001010;
	359	:	0000000100110111;
	360	:	1111111101110011;
	361	:	0000000001010010;
	362	:	1111111111101010;
	363	:	1111111111111111;
	364	:	0000000000000010;
	365	:	0000000000000100;
	366	:	1111111111101111;
	367	:	1111111110011100;
	368	:	1111111100000001;
	369	:	1111111111011100;
	370	:	0000000110110001;
	371	:	0000000011000001;
	372	:	1111111101110011;
	373	:	1111111011011101;
	374	:	1111111111000010;
	375	:	0000001010011010;
	376	:	0000001100110100;
	377	:	0000001001011110;
	378	:	0000000101011101;
	379	:	0000000110100100;
	380	:	1111111101101100;
	381	:	1111101010001000;
	382	:	1111101001001111;
	383	:	1111111011000000;
	384	:	0000000100010101;
	385	:	0000000001111101;
	386	:	0000000010111010;
	387	:	0000000101010100;
	388	:	1111111111010010;
	389	:	0000000001011000;
	390	:	1111111111000100;
	391	:	1111111111101101;
	392	:	0000000000000100;
	393	:	0000000000010011;
	394	:	1111111111111100;
	395	:	0000000000110010;
	396	:	1111111101101000;
	397	:	1111111101110110;
	398	:	0000000100100100;
	399	:	0000000110010100;
	400	:	0000000001001111;
	401	:	1111111110100000;
	402	:	0000000101101101;
	403	:	0000001110010010;
	404	:	0000010010101110;
	405	:	0000001100001010;
	406	:	0000000110010011;
	407	:	0000000011000110;
	408	:	0000000000000011;
	409	:	1111110011010000;
	410	:	1111110011010110;
	411	:	1111111100111100;
	412	:	0000000000111100;
	413	:	0000000001011000;
	414	:	1111111110010000;
	415	:	0000000001110110;
	416	:	1111111111001001;
	417	:	1111111110101101;
	418	:	1111111110101000;
	419	:	1111111111101011;
	420	:	0000000000000011;
	421	:	0000000000011100;
	422	:	0000000000001110;
	423	:	0000000010000010;
	424	:	0000000100010011;
	425	:	1111111111111011;
	426	:	1111111111100111;
	427	:	0000000100110011;
	428	:	0000000000101000;
	429	:	1111111111101001;
	430	:	0000000101000011;
	431	:	0000000111100001;
	432	:	0000001001110111;
	433	:	0000000011100011;
	434	:	0000000001110110;
	435	:	1111111101001101;
	436	:	1111111011100100;
	437	:	1111110111111001;
	438	:	1111111010110111;
	439	:	1111111011111110;
	440	:	1111111100010111;
	441	:	1111111110011110;
	442	:	1111111111100101;
	443	:	1111111111101011;
	444	:	1111111101101100;
	445	:	1111111100001001;
	446	:	1111111110100111;
	447	:	0000000000000000;
	448	:	0000000000000000;
	449	:	0000000000000111;
	450	:	0000000000101000;
	451	:	0000000010000100;
	452	:	0000000011110111;
	453	:	0000000010000100;
	454	:	0000000010110011;
	455	:	0000000101000100;
	456	:	1111111111000011;
	457	:	1111111000111000;
	458	:	1111111001000010;
	459	:	1111111101011100;
	460	:	0000000001000010;
	461	:	0000000000000111;
	462	:	1111111111011101;
	463	:	1111111110100101;
	464	:	1111111110100110;
	465	:	1111111100110001;
	466	:	1111111100110111;
	467	:	1111111110000000;
	468	:	1111111111110011;
	469	:	0000000010000111;
	470	:	0000000001010010;
	471	:	0000000000001000;
	472	:	1111111100100111;
	473	:	1111111011111010;
	474	:	1111111110101011;
	475	:	0000000000000000;
	476	:	0000000000000000;
	477	:	0000000000000001;
	478	:	0000000000110010;
	479	:	0000000011000101;
	480	:	0000000101010011;
	481	:	1111111111111101;
	482	:	0000000011100000;
	483	:	0000000110010100;
	484	:	1111111111111101;
	485	:	1111110001100111;
	486	:	1111110001111101;
	487	:	1111110110001101;
	488	:	1111111111000110;
	489	:	0000000011100001;
	490	:	0000000001011011;
	491	:	0000000000010000;
	492	:	1111111100001100;
	493	:	1111111010110011;
	494	:	1111111101000100;
	495	:	1111111110100101;
	496	:	1111111110010001;
	497	:	0000000010101100;
	498	:	0000000010101010;
	499	:	0000000011011011;
	500	:	1111111111010110;
	501	:	1111111100000010;
	502	:	1111111110011010;
	503	:	1111111111111010;
	504	:	0000000000000011;
	505	:	0000000000000100;
	506	:	0000000000111010;
	507	:	0000000001101100;
	508	:	0000000101101001;
	509	:	0000000010001100;
	510	:	0000000011001010;
	511	:	0000000001110100;
	512	:	1111111001011010;
	513	:	1111110011010111;
	514	:	1111101110100110;
	515	:	1111110100001110;
	516	:	1111111110110000;
	517	:	0000000011011010;
	518	:	0000000001001001;
	519	:	0000000100010001;
	520	:	0000000011101110;
	521	:	1111111110001010;
	522	:	0000000000001010;
	523	:	0000000000110000;
	524	:	0000000001001001;
	525	:	0000000000000010;
	526	:	0000000000110010;
	527	:	0000000000000111;
	528	:	1111111101010100;
	529	:	1111111100000111;
	530	:	1111111110100101;
	531	:	1111111111110000;
	532	:	0000000000000011;
	533	:	0000000000000100;
	534	:	0000000000001110;
	535	:	1111111111110110;
	536	:	0000000011001101;
	537	:	0000000011101100;
	538	:	0000000000100010;
	539	:	1111111111011111;
	540	:	1111111010100111;
	541	:	1111110100101100;
	542	:	1111101100000110;
	543	:	1111101110011110;
	544	:	1111111000101011;
	545	:	1111111110101101;
	546	:	0000000001010110;
	547	:	0000000011000001;
	548	:	0000000011011010;
	549	:	0000000100101010;
	550	:	0000000100100101;
	551	:	0000000000110101;
	552	:	1111111110110110;
	553	:	0000000001011011;
	554	:	0000000011101100;
	555	:	0000000000110101;
	556	:	1111111100011100;
	557	:	1111111101111000;
	558	:	1111111111110000;
	559	:	1111111111111001;
	560	:	0000000000000010;
	561	:	0000000000000010;
	562	:	1111111111111000;
	563	:	1111111111011100;
	564	:	0000000010010101;
	565	:	0000000010011111;
	566	:	1111111011111101;
	567	:	1111111110000101;
	568	:	1111111110110010;
	569	:	1111111101111010;
	570	:	1111110010111011;
	571	:	1111101100111111;
	572	:	1111110001111001;
	573	:	1111110111011110;
	574	:	0000000000100000;
	575	:	0000000011101111;
	576	:	0000000011111100;
	577	:	0000000011100001;
	578	:	0000000100001010;
	579	:	0000000010111010;
	580	:	0000000011001011;
	581	:	0000000101010011;
	582	:	0000000101000000;
	583	:	1111111111100001;
	584	:	1111111101000111;
	585	:	1111111111011010;
	586	:	0000000000010101;
	587	:	1111111111111111;
	588	:	0000000000000000;
	589	:	0000000000000010;
	590	:	1111111111111001;
	591	:	1111111111010011;
	592	:	0000000001111001;
	593	:	0000000010101011;
	594	:	1111111101011011;
	595	:	1111111111000010;
	596	:	1111111111110011;
	597	:	1111111101010111;
	598	:	1111110010101110;
	599	:	1111101010011110;
	600	:	1111101011011100;
	601	:	1111110100100101;
	602	:	1111111110100001;
	603	:	0000000101100011;
	604	:	0000001000001111;
	605	:	0000000111110001;
	606	:	0000000101111100;
	607	:	0000000101011011;
	608	:	0000000011110100;
	609	:	0000000011111100;
	610	:	1111111111000011;
	611	:	1111111100001101;
	612	:	1111111110101110;
	613	:	1111111111111101;
	614	:	0000000000011001;
	615	:	1111111111111111;
	616	:	0000000000000100;
	617	:	0000000000000100;
	618	:	0000000000000101;
	619	:	0000000000010001;
	620	:	0000000001101110;
	621	:	0000000100100110;
	622	:	1111111111110011;
	623	:	1111111111001010;
	624	:	1111111111101011;
	625	:	1111111110100111;
	626	:	1111110010110100;
	627	:	1111100111111110;
	628	:	1111101001010101;
	629	:	1111110001011110;
	630	:	1111111001001100;
	631	:	0000000001110111;
	632	:	0000000111101110;
	633	:	0000000100011011;
	634	:	0000000001101011;
	635	:	0000000010111110;
	636	:	0000000100011001;
	637	:	0000000001100001;
	638	:	1111111101011000;
	639	:	1111111100010100;
	640	:	1111111111100101;
	641	:	0000000000010100;
	642	:	0000000000001011;
	643	:	0000000000000001;
	644	:	0000000000000100;
	645	:	0000000000000010;
	646	:	0000000000000010;
	647	:	1111111111101110;
	648	:	0000000000011000;
	649	:	0000000010100001;
	650	:	0000000100000010;
	651	:	0000000010100101;
	652	:	0000000100010101;
	653	:	0000000010111110;
	654	:	1111110101101000;
	655	:	1111101101010110;
	656	:	1111101101111000;
	657	:	1111110001100101;
	658	:	1111110110110110;
	659	:	1111111011110101;
	660	:	0000000000000000;
	661	:	0000000000000011;
	662	:	1111111110100000;
	663	:	1111111111011110;
	664	:	1111111110111111;
	665	:	1111111101100110;
	666	:	1111111110001100;
	667	:	1111111110010110;
	668	:	1111111111111101;
	669	:	0000000000001100;
	670	:	0000000000000100;
	671	:	0000000000000010;
	672	:	0000000000000010;
	673	:	0000000000000010;
	674	:	0000000000000001;
	675	:	1111111111011011;
	676	:	1111111111010010;
	677	:	0000000010001010;
	678	:	0000000110110100;
	679	:	0000001010010001;
	680	:	0000001101111001;
	681	:	0000001011010101;
	682	:	1111111111011011;
	683	:	1111111000011110;
	684	:	1111110111010001;
	685	:	1111111000100001;
	686	:	1111111010010010;
	687	:	1111111100000101;
	688	:	1111111101101001;
	689	:	1111111100110010;
	690	:	1111111100111110;
	691	:	1111111101100100;
	692	:	1111111101101010;
	693	:	1111111110011100;
	694	:	1111111111000011;
	695	:	1111111111101010;
	696	:	0000000000000000;
	697	:	0000000000000100;
	698	:	0000000000000100;
	699	:	0000000000000001;
	700	:	0000000000000010;
	701	:	0000000000000000;
	702	:	0000000000000000;
	703	:	1111111111111011;
	704	:	1111111111111010;
	705	:	0000000001011010;
	706	:	0000000100111010;
	707	:	0000001000011110;
	708	:	0000001010110101;
	709	:	0000001000010001;
	710	:	0000000011111011;
	711	:	0000000000011001;
	712	:	1111111110110001;
	713	:	1111111110100001;
	714	:	1111111110101011;
	715	:	1111111111000000;
	716	:	1111111110100000;
	717	:	1111111101011001;
	718	:	1111111101100011;
	719	:	1111111110000111;
	720	:	1111111110101001;
	721	:	1111111111100010;
	722	:	1111111111110010;
	723	:	1111111111111111;
	724	:	1111111111111110;
	725	:	0000000000000001;
	726	:	0000000000000011;
	727	:	0000000000000011;
	728	:	0000000000000010;
	729	:	0000000000000100;
	730	:	0000000000000000;
	731	:	0000000000000001;
	732	:	0000000000000011;
	733	:	0000000000101000;
	734	:	0000000001110011;
	735	:	0000000010011011;
	736	:	0000000010100101;
	737	:	0000000001001110;
	738	:	0000000001000100;
	739	:	0000000000100001;
	740	:	0000000000000000;
	741	:	0000000000000010;
	742	:	1111111111110101;
	743	:	1111111111111010;
	744	:	1111111111100001;
	745	:	1111111111011111;
	746	:	1111111111101111;
	747	:	1111111111100111;
	748	:	1111111111101101;
	749	:	1111111111111100;
	750	:	0000000000000000;
	751	:	0000000000000100;
	752	:	0000000000000001;
	753	:	0000000000000101;
	754	:	0000000000000011;
	755	:	0000000000000010;
	756	:	0000000000000011;
	757	:	0000000000000001;
	758	:	0000000000000011;
	759	:	0000000000000001;
	760	:	0000000000000100;
	761	:	0000000000000100;
	762	:	0000000000010100;
	763	:	0000000000001111;
	764	:	0000000000011001;
	765	:	0000000000000110;
	766	:	0000000000000010;
	767	:	0000000000000100;
	768	:	0000000000000011;
	769	:	0000000000000000;
	770	:	0000000000000000;
	771	:	0000000000000000;
	772	:	1111111111110111;
	773	:	0000000000000011;
	774	:	0000000000000010;
	775	:	0000000000000100;
	776	:	0000000000000100;
	777	:	0000000000000100;
	778	:	0000000000000100;
	779	:	0000000000000101;
	780	:	0000000000000010;
	781	:	0000000000000101;
	782	:	0000000000000000;
	783	:	0000000000000011;
END;
