-- Copyright (C) 2018  Intel Corporation. All rights reserved.
-- Your use of Intel Corporation's design tools, logic functions
-- and other software and tools, and its AMPP partner logic
-- functions, and any output files from any of the foregoing
-- (including device programming or simulation files), and any
-- associated documentation or information are expressly subject
-- to the terms and conditions of the Intel Program License
-- Subscription Agreement, the Intel Quartus Prime License Agreement,
-- the Intel FPGA IP License Agreement, or other applicable license
-- agreement, including, without limitation, that your use is for
-- the sole purpose of programming logic devices manufactured by
-- Intel and sold by Intel or its authorized distributors.  Please
-- refer to the applicable agreement for further details.
 
-- Quartus Prime generated Memory Initialization File (.mif)

WIDTH=16;
DEPTH=1024;

ADDRESS_RADIX=UNS;
DATA_RADIX=BIN;

CONTENT BEGIN
	0	:	0000000000000010;
	1	:	0000000000000011;
	2	:	0000000000000100;
	3	:	0000000000000011;
	4	:	0000000000000100;
	5	:	0000000000000011;
	6	:	0000000000000011;
	7	:	0000000000000100;
	8	:	0000000000000010;
	9	:	0000000000000000;
	10	:	0000000000000100;
	11	:	0000000000000011;
	12	:	0000000000000001;
	13	:	0000000000000000;
	14	:	0000000000000000;
	15	:	0000000000000011;
	16	:	0000000000000011;
	17	:	0000000000000001;
	18	:	0000000000000100;
	19	:	0000000000000010;
	20	:	0000000000000011;
	21	:	0000000000000010;
	22	:	0000000000000010;
	23	:	0000000000000000;
	24	:	0000000000000100;
	25	:	0000000000000010;
	26	:	0000000000000010;
	27	:	0000000000000010;
	28	:	0000000000000100;
	29	:	0000000000000100;
	30	:	0000000000000001;
	31	:	0000000000000100;
	32	:	0000000000000100;
	33	:	0000000000000100;
	34	:	0000000000000001;
	35	:	0000000000000100;
	36	:	0000000000000100;
	37	:	0000000000000001;
	38	:	0000000000000100;
	39	:	0000000000000100;
	40	:	0000000000000011;
	41	:	0000000000000001;
	42	:	0000000000000011;
	43	:	0000000000000101;
	44	:	0000000000000011;
	45	:	0000000000000000;
	46	:	0000000000000000;
	47	:	0000000000000010;
	48	:	0000000000000001;
	49	:	0000000000000000;
	50	:	0000000000000001;
	51	:	0000000000000010;
	52	:	0000000000000000;
	53	:	0000000000000001;
	54	:	0000000000000001;
	55	:	0000000000000101;
	56	:	0000000000000000;
	57	:	0000000000000001;
	58	:	0000000000000100;
	59	:	0000000000000000;
	60	:	0000000000000010;
	61	:	0000000000000101;
	62	:	0000000000001000;
	63	:	0000000000011011;
	64	:	0000000000010011;
	65	:	0000000000000100;
	66	:	0000000000000110;
	67	:	0000000000001100;
	68	:	0000000000001000;
	69	:	0000000000000010;
	70	:	0000000000000101;
	71	:	1111111111111101;
	72	:	0000000000000101;
	73	:	0000000000000111;
	74	:	0000000000001001;
	75	:	0000000000001100;
	76	:	0000000000010011;
	77	:	0000000000010001;
	78	:	0000000000001010;
	79	:	0000000000001010;
	80	:	0000000000000111;
	81	:	0000000000000011;
	82	:	0000000000000011;
	83	:	0000000000000100;
	84	:	0000000000000000;
	85	:	0000000000000100;
	86	:	0000000000000001;
	87	:	1111111111111101;
	88	:	0000000000000100;
	89	:	0000000000011001;
	90	:	0000000000101101;
	91	:	0000000001001100;
	92	:	0000000000111101;
	93	:	0000000001100001;
	94	:	0000000001111110;
	95	:	0000000010001010;
	96	:	0000000001100001;
	97	:	0000000000110001;
	98	:	0000000000010011;
	99	:	1111111111111111;
	100	:	0000000000101001;
	101	:	0000000001010011;
	102	:	0000000001011111;
	103	:	0000000001101011;
	104	:	0000000010010110;
	105	:	0000000001110011;
	106	:	0000000001011000;
	107	:	0000000000100010;
	108	:	0000000000011011;
	109	:	0000000000000001;
	110	:	0000000000000001;
	111	:	0000000000000011;
	112	:	0000000000000000;
	113	:	0000000000000001;
	114	:	0000000000000100;
	115	:	0000000000000000;
	116	:	0000000000001010;
	117	:	0000000001001010;
	118	:	0000000010010001;
	119	:	0000000010110101;
	120	:	0000000011110110;
	121	:	0000000011100000;
	122	:	0000000010101111;
	123	:	0000000001110101;
	124	:	0000000001100111;
	125	:	0000000000111100;
	126	:	0000000000010000;
	127	:	1111111111011011;
	128	:	1111111111110101;
	129	:	0000000001011001;
	130	:	0000000001101110;
	131	:	0000000011001000;
	132	:	0000000011111111;
	133	:	0000000010110111;
	134	:	0000000010001010;
	135	:	0000000001000110;
	136	:	0000000000101001;
	137	:	0000000000001010;
	138	:	0000000000000110;
	139	:	0000000000000101;
	140	:	0000000000000001;
	141	:	0000000000000011;
	142	:	0000000000000010;
	143	:	0000000000010100;
	144	:	0000000000110111;
	145	:	0000000010011101;
	146	:	0000000010100011;
	147	:	0000000010010110;
	148	:	0000000010110110;
	149	:	0000000010101100;
	150	:	0000000001100011;
	151	:	0000000000110011;
	152	:	0000000000110000;
	153	:	1111111101001111;
	154	:	1111111011110100;
	155	:	1111111100110011;
	156	:	1111111110000101;
	157	:	1111111100100010;
	158	:	1111111011101000;
	159	:	1111111101001000;
	160	:	1111111111111010;
	161	:	0000000010111101;
	162	:	0000000010100111;
	163	:	0000000001100010;
	164	:	0000000001100010;
	165	:	0000000001000000;
	166	:	0000000000001010;
	167	:	0000000000000010;
	168	:	0000000000000101;
	169	:	0000000000000010;
	170	:	1111111111111011;
	171	:	0000000000010011;
	172	:	0000000000111010;
	173	:	0000000010010111;
	174	:	0000000011000001;
	175	:	0000000010110101;
	176	:	0000000010001100;
	177	:	0000000100001010;
	178	:	0000000011010101;
	179	:	1111111110100000;
	180	:	1111111011010000;
	181	:	1111110111011011;
	182	:	1111110110010101;
	183	:	1111110111000101;
	184	:	1111111000110101;
	185	:	1111110111101011;
	186	:	1111110110111000;
	187	:	1111110111101111;
	188	:	1111111110000111;
	189	:	0000000011011010;
	190	:	0000000100010001;
	191	:	0000000010001010;
	192	:	0000000010001010;
	193	:	0000000010000010;
	194	:	0000000000111011;
	195	:	0000000000000101;
	196	:	0000000000000011;
	197	:	0000000000000110;
	198	:	1111111111110100;
	199	:	0000000000000110;
	200	:	0000000001010101;
	201	:	0000000010110000;
	202	:	0000000011001110;
	203	:	0000000001001101;
	204	:	0000000000100001;
	205	:	0000000010001101;
	206	:	0000000000010010;
	207	:	1111111101110011;
	208	:	1111110111011100;
	209	:	1111110011001100;
	210	:	1111110001111010;
	211	:	1111110010010110;
	212	:	1111111000010001;
	213	:	1111111100011111;
	214	:	1111111001101111;
	215	:	1111111010100000;
	216	:	1111111101010101;
	217	:	0000000001101111;
	218	:	0000000010110011;
	219	:	0000000001110101;
	220	:	0000000011010001;
	221	:	0000000011100110;
	222	:	0000000001001100;
	223	:	0000000000000110;
	224	:	0000000000000001;
	225	:	0000000000001000;
	226	:	1111111111101001;
	227	:	1111111111110001;
	228	:	0000000010011110;
	229	:	0000000010111011;
	230	:	0000000010011100;
	231	:	1111111111010110;
	232	:	1111111111011001;
	233	:	0000000000111010;
	234	:	1111111111100100;
	235	:	1111111100100100;
	236	:	1111111000001011;
	237	:	1111110100101111;
	238	:	1111101011111001;
	239	:	1111101110001101;
	240	:	1111111100000100;
	241	:	0000000011000001;
	242	:	0000000001110101;
	243	:	1111111101011101;
	244	:	1111111010011011;
	245	:	1111111110110000;
	246	:	1111111111110001;
	247	:	0000000001101110;
	248	:	0000000100111110;
	249	:	0000000100111100;
	250	:	0000000001101011;
	251	:	0000000000001110;
	252	:	0000000000000001;
	253	:	0000000000000100;
	254	:	1111111111001010;
	255	:	0000000000011000;
	256	:	0000000011111000;
	257	:	0000000010100011;
	258	:	1111111111011101;
	259	:	1111111011001111;
	260	:	0000000000000111;
	261	:	0000000000000011;
	262	:	1111111011010110;
	263	:	1111111000101000;
	264	:	1111111101000111;
	265	:	1111110101110010;
	266	:	1111101101001011;
	267	:	1111101100010111;
	268	:	1111111011011110;
	269	:	0000000010100100;
	270	:	0000000101101010;
	271	:	1111111111101111;
	272	:	1111110111000011;
	273	:	1111111010001101;
	274	:	1111111111001101;
	275	:	0000000010110001;
	276	:	0000000100000101;
	277	:	0000000101100100;
	278	:	0000000010011001;
	279	:	0000000000010001;
	280	:	0000000000000001;
	281	:	1111111111111101;
	282	:	1111111110101111;
	283	:	0000000000101001;
	284	:	0000000101000000;
	285	:	0000000000100010;
	286	:	1111111111010000;
	287	:	1111111001110110;
	288	:	1111111101101111;
	289	:	0000000010000000;
	290	:	1111111011010011;
	291	:	1111110110010111;
	292	:	1111110101000110;
	293	:	1111110000001011;
	294	:	1111101111000100;
	295	:	1111110010001101;
	296	:	1111111100010111;
	297	:	0000000010100101;
	298	:	0000001001000111;
	299	:	0000000000000110;
	300	:	1111110100100100;
	301	:	1111110110001010;
	302	:	1111111111000001;
	303	:	0000000001010100;
	304	:	0000000011111000;
	305	:	0000000101100000;
	306	:	0000000011000001;
	307	:	0000000000000101;
	308	:	0000000000000011;
	309	:	1111111111111001;
	310	:	1111111110100111;
	311	:	0000000000110111;
	312	:	0000000100101000;
	313	:	0000000010100111;
	314	:	0000000001101101;
	315	:	1111111110111011;
	316	:	1111111101010101;
	317	:	1111111010101000;
	318	:	1111110010110100;
	319	:	1111101110000110;
	320	:	1111101011010011;
	321	:	1111110000000000;
	322	:	1111110101111101;
	323	:	1111111100001000;
	324	:	0000000010000110;
	325	:	0000001000000011;
	326	:	0000001110001001;
	327	:	1111111111010101;
	328	:	1111110000111011;
	329	:	1111110010100000;
	330	:	1111111011110010;
	331	:	1111111111111001;
	332	:	0000000010110111;
	333	:	0000000101010110;
	334	:	0000000011100010;
	335	:	0000000000000001;
	336	:	1111111111111010;
	337	:	1111111111110111;
	338	:	1111111111000001;
	339	:	0000000010011111;
	340	:	0000000110100011;
	341	:	0000000011100101;
	342	:	0000000010010101;
	343	:	0000000010111001;
	344	:	1111111101010111;
	345	:	1111110100001111;
	346	:	1111101101100011;
	347	:	1111101011011001;
	348	:	1111101100011110;
	349	:	1111111011001011;
	350	:	0000000010000111;
	351	:	0000000111001001;
	352	:	0000001001111010;
	353	:	0000001101100110;
	354	:	0000001100101000;
	355	:	1111111111110000;
	356	:	1111110011000110;
	357	:	1111110111000011;
	358	:	1111111101101100;
	359	:	0000000001111110;
	360	:	0000000010011111;
	361	:	0000000100100100;
	362	:	0000000011011011;
	363	:	0000000000101000;
	364	:	1111111111110011;
	365	:	1111111111111101;
	366	:	1111111111001000;
	367	:	0000000010011000;
	368	:	0000001000110011;
	369	:	0000000101111100;
	370	:	0000000111000001;
	371	:	0000000100110111;
	372	:	1111111100110110;
	373	:	1111111011000010;
	374	:	1111110111110000;
	375	:	1111111001111110;
	376	:	0000000001011010;
	377	:	0000001111010110;
	378	:	0000010011110110;
	379	:	0000010010011111;
	380	:	0000001110101011;
	381	:	0000001110011111;
	382	:	0000001001010111;
	383	:	1111111110010011;
	384	:	1111111000010001;
	385	:	1111111011000001;
	386	:	1111111111000101;
	387	:	0000000000000011;
	388	:	0000000001010111;
	389	:	0000000011010111;
	390	:	0000000100000100;
	391	:	0000000000011111;
	392	:	0000000000000000;
	393	:	0000000000000010;
	394	:	1111111111100100;
	395	:	0000000000110111;
	396	:	0000000101100011;
	397	:	0000000101101000;
	398	:	0000001000111111;
	399	:	0000000110011010;
	400	:	0000000101011100;
	401	:	0000001001011000;
	402	:	0000001010011101;
	403	:	0000010001010111;
	404	:	0000010110110100;
	405	:	0000011010001100;
	406	:	0000010110111010;
	407	:	0000010011100110;
	408	:	0000001001100111;
	409	:	0000000111001101;
	410	:	0000000011111100;
	411	:	1111111001100110;
	412	:	1111111010000010;
	413	:	1111111100010010;
	414	:	1111111110011010;
	415	:	1111111010011001;
	416	:	1111111101110110;
	417	:	0000000010000001;
	418	:	0000000100001100;
	419	:	0000000000110000;
	420	:	0000000000000011;
	421	:	1111111111111011;
	422	:	1111111111001111;
	423	:	0000000001110110;
	424	:	0000000011001101;
	425	:	0000000011100110;
	426	:	0000001000001000;
	427	:	0000001000011011;
	428	:	0000001010000001;
	429	:	0000001111100101;
	430	:	0000010001111001;
	431	:	0000010011111011;
	432	:	0000010100010010;
	433	:	0000010100101111;
	434	:	0000010001000001;
	435	:	0000001100011111;
	436	:	0000001000001011;
	437	:	0000000100100000;
	438	:	1111111110010110;
	439	:	1111111010000110;
	440	:	1111111010000011;
	441	:	1111111011000100;
	442	:	1111111100000000;
	443	:	1111111011001010;
	444	:	1111111101110110;
	445	:	0000000001001000;
	446	:	0000000010100111;
	447	:	0000000000100100;
	448	:	0000000000000001;
	449	:	0000000000000000;
	450	:	1111111111000111;
	451	:	0000000000110111;
	452	:	0000000010001010;
	453	:	1111111111111100;
	454	:	0000000110100010;
	455	:	0000000110010010;
	456	:	0000000110010001;
	457	:	0000001011100001;
	458	:	0000001011100010;
	459	:	0000001011100001;
	460	:	0000001011000101;
	461	:	0000001101111001;
	462	:	0000001101111011;
	463	:	0000001001000000;
	464	:	0000000111110101;
	465	:	1111111110110011;
	466	:	1111111010101111;
	467	:	1111111010111100;
	468	:	1111111011000100;
	469	:	1111111010011111;
	470	:	1111111100111011;
	471	:	1111111010100010;
	472	:	1111111111100010;
	473	:	0000000011101111;
	474	:	0000000011001111;
	475	:	0000000000100010;
	476	:	0000000000000100;
	477	:	0000000000000010;
	478	:	1111111111010000;
	479	:	0000000000000111;
	480	:	1111111110011001;
	481	:	1111111100011001;
	482	:	0000000011011110;
	483	:	0000000100100110;
	484	:	0000000100000001;
	485	:	0000001000001001;
	486	:	0000001001110100;
	487	:	0000001011101100;
	488	:	0000001000001100;
	489	:	0000000110001001;
	490	:	0000001000100100;
	491	:	0000000101011000;
	492	:	0000000000001110;
	493	:	1111111001111001;
	494	:	1111110110011101;
	495	:	1111111010111100;
	496	:	1111111110110110;
	497	:	1111111100011010;
	498	:	1111111100011000;
	499	:	1111111010011110;
	500	:	0000000000001001;
	501	:	0000000101111000;
	502	:	0000000011010110;
	503	:	0000000000010110;
	504	:	0000000000000100;
	505	:	1111111111111101;
	506	:	1111111111000011;
	507	:	1111111111011110;
	508	:	1111111110001101;
	509	:	1111111011000111;
	510	:	0000000001110010;
	511	:	0000000101001101;
	512	:	0000000111100001;
	513	:	0000000100001010;
	514	:	0000001000100000;
	515	:	0000001100001101;
	516	:	0000001001010111;
	517	:	0000001000101110;
	518	:	0000001000010100;
	519	:	0000000010111111;
	520	:	1111111101000000;
	521	:	1111110111110111;
	522	:	1111110111001101;
	523	:	1111111010001111;
	524	:	1111111101010011;
	525	:	0000000000110000;
	526	:	1111111110010001;
	527	:	1111111100111111;
	528	:	0000000000011010;
	529	:	0000000100111010;
	530	:	0000000001101111;
	531	:	0000000000001000;
	532	:	0000000000000001;
	533	:	1111111111111001;
	534	:	1111111111001100;
	535	:	1111111110101110;
	536	:	1111111100110111;
	537	:	1111111010000111;
	538	:	1111111111100110;
	539	:	0000000111010011;
	540	:	0000001000111100;
	541	:	0000000100100100;
	542	:	0000000111010101;
	543	:	0000001011010010;
	544	:	0000001011111110;
	545	:	0000001001011001;
	546	:	0000000101110111;
	547	:	1111111111010101;
	548	:	1111111001100101;
	549	:	1111110111011000;
	550	:	1111111011010000;
	551	:	0000000000110100;
	552	:	0000000100011011;
	553	:	0000000011111001;
	554	:	1111111110011010;
	555	:	1111111101110011;
	556	:	0000000000101100;
	557	:	0000000100010110;
	558	:	0000000001001000;
	559	:	0000000000010011;
	560	:	0000000000000010;
	561	:	1111111111111100;
	562	:	1111111111010011;
	563	:	1111111110000101;
	564	:	1111111011011010;
	565	:	1111111010000000;
	566	:	1111111111101011;
	567	:	0000000101110010;
	568	:	0000000010000001;
	569	:	0000000010010010;
	570	:	0000000110111111;
	571	:	0000001110101100;
	572	:	0000001101011110;
	573	:	0000001000100101;
	574	:	1111111101001000;
	575	:	1111110111110100;
	576	:	1111110011101111;
	577	:	1111110110011111;
	578	:	1111111101100101;
	579	:	0000000001011111;
	580	:	0000000011000011;
	581	:	1111111111010000;
	582	:	1111111011111101;
	583	:	1111111100101010;
	584	:	0000000010000011;
	585	:	0000000011011110;
	586	:	0000000001010011;
	587	:	0000000000001011;
	588	:	0000000000000010;
	589	:	1111111111110111;
	590	:	1111111111001001;
	591	:	1111111110000101;
	592	:	1111111011001000;
	593	:	1111111001100011;
	594	:	1111111010111110;
	595	:	1111111111110001;
	596	:	1111111111001011;
	597	:	1111111110010001;
	598	:	0000000110100111;
	599	:	0000001101011100;
	600	:	0000001100111110;
	601	:	0000000011011101;
	602	:	1111111000110110;
	603	:	1111110100000001;
	604	:	1111110011101110;
	605	:	1111111001001010;
	606	:	1111111111110010;
	607	:	0000000000100110;
	608	:	0000000001010110;
	609	:	1111111110110000;
	610	:	1111111101000000;
	611	:	1111111111011110;
	612	:	0000000001011101;
	613	:	0000000001101001;
	614	:	0000000001000011;
	615	:	0000000000001011;
	616	:	0000000000000101;
	617	:	0000000000000000;
	618	:	1111111111010101;
	619	:	1111111111010011;
	620	:	1111111100001111;
	621	:	1111111001000100;
	622	:	1111110111001111;
	623	:	1111110111111110;
	624	:	1111111000100100;
	625	:	1111111010010111;
	626	:	0000000001101000;
	627	:	0000001001001110;
	628	:	0000000101101001;
	629	:	1111111100011001;
	630	:	1111110101011000;
	631	:	1111110010001010;
	632	:	1111110100101111;
	633	:	1111111010010110;
	634	:	1111111110100000;
	635	:	1111111110110111;
	636	:	1111111111100111;
	637	:	1111111111000100;
	638	:	1111111111111111;
	639	:	0000000001010111;
	640	:	0000000001001010;
	641	:	0000000000110010;
	642	:	0000000000011100;
	643	:	0000000000000111;
	644	:	0000000000000000;
	645	:	0000000000000010;
	646	:	1111111111110110;
	647	:	1111111111111100;
	648	:	1111111101011000;
	649	:	1111111010100111;
	650	:	1111110111110101;
	651	:	1111110101010000;
	652	:	1111110010101000;
	653	:	1111110011110101;
	654	:	1111111010111100;
	655	:	0000000001100111;
	656	:	1111111111111100;
	657	:	1111111001110111;
	658	:	1111110111010010;
	659	:	1111110101001100;
	660	:	1111110110110000;
	661	:	1111111100110011;
	662	:	1111111111001111;
	663	:	1111111111000100;
	664	:	1111111111010110;
	665	:	1111111111101000;
	666	:	0000000001001010;
	667	:	0000000001100110;
	668	:	0000000000110111;
	669	:	0000000000100011;
	670	:	0000000000010011;
	671	:	0000000000000000;
	672	:	0000000000000100;
	673	:	0000000000000001;
	674	:	1111111111111110;
	675	:	0000000000000010;
	676	:	1111111111100100;
	677	:	1111111101100001;
	678	:	1111111011001010;
	679	:	1111110110101011;
	680	:	1111110011000100;
	681	:	1111110010110011;
	682	:	1111111010001010;
	683	:	0000000000010100;
	684	:	1111111111011101;
	685	:	1111111100101100;
	686	:	1111111100101000;
	687	:	1111111100101000;
	688	:	1111111101000100;
	689	:	1111111111110001;
	690	:	0000000000011100;
	691	:	0000000000011101;
	692	:	0000000001001011;
	693	:	0000000000100101;
	694	:	0000000000101101;
	695	:	0000000000100001;
	696	:	0000000000001101;
	697	:	0000000000000100;
	698	:	0000000000000000;
	699	:	0000000000000011;
	700	:	0000000000000001;
	701	:	0000000000000000;
	702	:	0000000000000101;
	703	:	0000000000000011;
	704	:	0000000000000100;
	705	:	1111111110111110;
	706	:	1111111100111111;
	707	:	1111111001110101;
	708	:	1111111000000000;
	709	:	1111111001111000;
	710	:	1111111100110100;
	711	:	1111111111101011;
	712	:	0000000000100001;
	713	:	0000000000100101;
	714	:	0000000000110100;
	715	:	0000000000010110;
	716	:	0000000000111110;
	717	:	0000000001110111;
	718	:	0000000001110100;
	719	:	0000000001011000;
	720	:	0000000000111101;
	721	:	0000000000011010;
	722	:	0000000000001110;
	723	:	0000000000001000;
	724	:	0000000000000100;
	725	:	0000000000000001;
	726	:	0000000000000100;
	727	:	0000000000000010;
	728	:	0000000000000010;
	729	:	0000000000000100;
	730	:	0000000000000000;
	731	:	0000000000000101;
	732	:	0000000000000100;
	733	:	1111111111110001;
	734	:	1111111111001101;
	735	:	1111111110010100;
	736	:	1111111110001000;
	737	:	1111111111011010;
	738	:	1111111111000000;
	739	:	1111111111101001;
	740	:	0000000000011100;
	741	:	0000000000101010;
	742	:	0000000000100100;
	743	:	0000000000011001;
	744	:	0000000000111110;
	745	:	0000000000111000;
	746	:	0000000000010100;
	747	:	0000000000010011;
	748	:	0000000000000101;
	749	:	0000000000000011;
	750	:	0000000000000100;
	751	:	0000000000000001;
	752	:	0000000000000001;
	753	:	0000000000000000;
	754	:	0000000000000100;
	755	:	0000000000000011;
	756	:	0000000000000011;
	757	:	0000000000000100;
	758	:	0000000000000000;
	759	:	0000000000000011;
	760	:	0000000000000001;
	761	:	0000000000000011;
	762	:	0000000000000000;
	763	:	1111111111111010;
	764	:	1111111111110100;
	765	:	1111111111111010;
	766	:	1111111111111111;
	767	:	1111111111111010;
	768	:	0000000000000111;
	769	:	0000000000011000;
	770	:	0000000000000011;
	771	:	0000000000001000;
	772	:	0000000000001100;
	773	:	0000000000000111;
	774	:	0000000000000100;
	775	:	0000000000000010;
	776	:	0000000000000000;
	777	:	0000000000000001;
	778	:	0000000000000010;
	779	:	0000000000000011;
	780	:	0000000000000100;
	781	:	0000000000000001;
	782	:	0000000000000010;
	783	:	0000000000000001;
END;
