-- Copyright (C) 2018  Intel Corporation. All rights reserved.
-- Your use of Intel Corporation's design tools, logic functions
-- and other software and tools, and its AMPP partner logic
-- functions, and any output files from any of the foregoing
-- (including device programming or simulation files), and any
-- associated documentation or information are expressly subject
-- to the terms and conditions of the Intel Program License
-- Subscription Agreement, the Intel Quartus Prime License Agreement,
-- the Intel FPGA IP License Agreement, or other applicable license
-- agreement, including, without limitation, that your use is for
-- the sole purpose of programming logic devices manufactured by
-- Intel and sold by Intel or its authorized distributors.  Please
-- refer to the applicable agreement for further details.
 
-- Quartus Prime generated Memory Initialization File (.mif)

WIDTH=16;
DEPTH=1024;

ADDRESS_RADIX=UNS;
DATA_RADIX=BIN;

CONTENT BEGIN
	0	:	0000000000000101;
	1	:	0000000000000100;
	2	:	0000000000000101;
	3	:	0000000000000011;
	4	:	0000000000000011;
	5	:	0000000000000100;
	6	:	0000000000000011;
	7	:	0000000000000100;
	8	:	0000000000000000;
	9	:	0000000000000001;
	10	:	0000000000000010;
	11	:	0000000000000100;
	12	:	0000000000000010;
	13	:	0000000000000100;
	14	:	0000000000000010;
	15	:	0000000000000000;
	16	:	0000000000000100;
	17	:	0000000000000000;
	18	:	0000000000000010;
	19	:	0000000000000010;
	20	:	0000000000000000;
	21	:	0000000000000001;
	22	:	0000000000000001;
	23	:	0000000000000001;
	24	:	0000000000000100;
	25	:	0000000000000001;
	26	:	0000000000000000;
	27	:	0000000000000011;
	28	:	0000000000000100;
	29	:	0000000000000100;
	30	:	0000000000000010;
	31	:	0000000000000011;
	32	:	0000000000000001;
	33	:	0000000000000011;
	34	:	0000000000000001;
	35	:	0000000000000010;
	36	:	0000000000000011;
	37	:	0000000000000011;
	38	:	0000000000000001;
	39	:	0000000000000001;
	40	:	0000000000000100;
	41	:	0000000000000011;
	42	:	1111111111111101;
	43	:	1111111111111000;
	44	:	0000000000000000;
	45	:	0000000000000010;
	46	:	0000000000000000;
	47	:	0000000000000010;
	48	:	0000000000000000;
	49	:	0000000000000100;
	50	:	0000000000000001;
	51	:	0000000000000000;
	52	:	0000000000000001;
	53	:	0000000000000101;
	54	:	0000000000000011;
	55	:	0000000000000000;
	56	:	0000000000000000;
	57	:	0000000000000000;
	58	:	0000000000000000;
	59	:	0000000000000000;
	60	:	0000000000000100;
	61	:	0000000000000000;
	62	:	0000000000000000;
	63	:	1111111111111100;
	64	:	1111111111010110;
	65	:	1111111111110101;
	66	:	1111111111111001;
	67	:	1111111111111110;
	68	:	1111111111111111;
	69	:	0000000000000010;
	70	:	1111111111111110;
	71	:	1111111111110111;
	72	:	1111111111100110;
	73	:	1111111111100101;
	74	:	1111111111100110;
	75	:	1111111111101110;
	76	:	0000000000001101;
	77	:	0000000000011010;
	78	:	0000000000000000;
	79	:	0000000000000011;
	80	:	0000000000000000;
	81	:	0000000000000101;
	82	:	0000000000000001;
	83	:	0000000000000001;
	84	:	0000000000000001;
	85	:	0000000000000011;
	86	:	0000000000000100;
	87	:	0000000000000110;
	88	:	0000000000000001;
	89	:	0000000000001011;
	90	:	0000000000000100;
	91	:	1111111111101001;
	92	:	1111111111010001;
	93	:	1111111111011110;
	94	:	1111111111010001;
	95	:	1111111111010111;
	96	:	1111111111111010;
	97	:	1111111111111100;
	98	:	1111111111111101;
	99	:	0000000000000101;
	100	:	0000000000010100;
	101	:	0000000000011001;
	102	:	0000000000110110;
	103	:	0000000001011011;
	104	:	0000000001101100;
	105	:	0000000001010101;
	106	:	0000000001000111;
	107	:	0000000000000010;
	108	:	1111111111100001;
	109	:	1111111111111011;
	110	:	0000000000000000;
	111	:	0000000000000101;
	112	:	0000000000000011;
	113	:	0000000000000100;
	114	:	0000000000000010;
	115	:	0000000000000010;
	116	:	0000000000000100;
	117	:	0000000000001011;
	118	:	1111111111000001;
	119	:	1111111110000111;
	120	:	1111111111000101;
	121	:	1111111111111111;
	122	:	1111111111100011;
	123	:	1111111110101000;
	124	:	1111111110000101;
	125	:	1111111110010000;
	126	:	1111111101110001;
	127	:	1111111110010010;
	128	:	0000000001011001;
	129	:	0000000101011111;
	130	:	0000001000001110;
	131	:	0000001000001011;
	132	:	0000000110101111;
	133	:	0000000100100111;
	134	:	0000000011101000;
	135	:	0000000001001111;
	136	:	1111111111011101;
	137	:	1111111111111000;
	138	:	0000000000000000;
	139	:	0000000000000011;
	140	:	0000000000000010;
	141	:	0000000000000010;
	142	:	0000000000000100;
	143	:	0000000000001100;
	144	:	1111111111110010;
	145	:	1111111111010010;
	146	:	1111111101101001;
	147	:	1111111101101010;
	148	:	1111111111110001;
	149	:	1111111111111100;
	150	:	1111111110100111;
	151	:	1111111100000110;
	152	:	1111111001011011;
	153	:	1111110111111001;
	154	:	1111111001101001;
	155	:	1111111110000111;
	156	:	0000000011110100;
	157	:	0000001001101101;
	158	:	0000001100101001;
	159	:	0000001010010101;
	160	:	0000000101110111;
	161	:	0000000101000000;
	162	:	0000000100100110;
	163	:	0000000010101010;
	164	:	1111111111000101;
	165	:	1111111111010001;
	166	:	1111111111111111;
	167	:	0000000000000011;
	168	:	0000000000000000;
	169	:	0000000000001011;
	170	:	0000000000001010;
	171	:	0000000000010001;
	172	:	1111111111111011;
	173	:	1111111111110111;
	174	:	1111111110011110;
	175	:	1111111111000000;
	176	:	1111111111000011;
	177	:	1111111110000100;
	178	:	1111111011111101;
	179	:	1111110111111011;
	180	:	1111110100100101;
	181	:	1111110010110111;
	182	:	1111110110110000;
	183	:	0000000000100000;
	184	:	0000000110010011;
	185	:	0000001001001101;
	186	:	0000001010011010;
	187	:	0000001000100011;
	188	:	0000000011010001;
	189	:	0000000001110001;
	190	:	0000000010011100;
	191	:	0000000000010101;
	192	:	1111111101000010;
	193	:	1111111110011111;
	194	:	1111111111110001;
	195	:	0000000000000001;
	196	:	0000000000000100;
	197	:	0000000000011101;
	198	:	0000000000011111;
	199	:	0000000000111010;
	200	:	0000000000101011;
	201	:	0000000001001110;
	202	:	0000000000001010;
	203	:	1111111101011010;
	204	:	1111111100111100;
	205	:	1111111100110001;
	206	:	1111111001011011;
	207	:	1111110100101101;
	208	:	1111110001100011;
	209	:	1111110001101010;
	210	:	1111111001110011;
	211	:	0000000010110101;
	212	:	0000000011000001;
	213	:	0000000110010010;
	214	:	0000001000001101;
	215	:	0000001010001000;
	216	:	0000000101000011;
	217	:	0000000001110111;
	218	:	0000000001001001;
	219	:	1111111101101001;
	220	:	1111111010011111;
	221	:	1111111100100100;
	222	:	1111111111101100;
	223	:	0000000000000000;
	224	:	0000000000000011;
	225	:	0000000000011010;
	226	:	0000000000110101;
	227	:	0000000001101100;
	228	:	0000000010010100;
	229	:	0000000001011010;
	230	:	1111111111010101;
	231	:	1111111101010010;
	232	:	1111111110001111;
	233	:	1111111100010111;
	234	:	1111111000101100;
	235	:	1111110011001000;
	236	:	1111110000101010;
	237	:	1111110100000101;
	238	:	1111111110000010;
	239	:	0000000100101001;
	240	:	0000000000011010;
	241	:	0000000001000101;
	242	:	0000000110000100;
	243	:	0000001001111110;
	244	:	0000000110110100;
	245	:	0000000010101100;
	246	:	1111111111100010;
	247	:	1111111010100100;
	248	:	1111111000011101;
	249	:	1111111010111010;
	250	:	1111111111010101;
	251	:	0000000000000010;
	252	:	0000000000000001;
	253	:	0000000000001101;
	254	:	0000000001010101;
	255	:	0000000011001100;
	256	:	0000000100011110;
	257	:	0000000000100101;
	258	:	1111111011100101;
	259	:	1111111011001001;
	260	:	1111111101110010;
	261	:	1111111110110001;
	262	:	1111111000100001;
	263	:	1111110010110111;
	264	:	1111101111110010;
	265	:	1111110100111010;
	266	:	0000000010010000;
	267	:	0000000100111111;
	268	:	0000000000000110;
	269	:	1111111101011001;
	270	:	0000000010101111;
	271	:	0000001011000100;
	272	:	0000001000000010;
	273	:	0000000100111001;
	274	:	0000000000000001;
	275	:	1111111001011011;
	276	:	1111110110010001;
	277	:	1111111010011011;
	278	:	1111111111011101;
	279	:	0000000000000001;
	280	:	0000000000000000;
	281	:	0000000000101001;
	282	:	0000000010010101;
	283	:	0000000100100111;
	284	:	0000000101001011;
	285	:	0000000011100100;
	286	:	1111111101101011;
	287	:	1111111101010100;
	288	:	0000000001110001;
	289	:	0000000010011000;
	290	:	1111111010011011;
	291	:	1111110001111001;
	292	:	1111101100101101;
	293	:	1111110100110110;
	294	:	0000000100000101;
	295	:	0000000110101100;
	296	:	0000000011100011;
	297	:	0000000000011100;
	298	:	0000000111101010;
	299	:	0000001101011011;
	300	:	0000001010001111;
	301	:	0000000111000100;
	302	:	1111111101111001;
	303	:	1111111000100100;
	304	:	1111110101010011;
	305	:	1111111001111100;
	306	:	1111111111100001;
	307	:	0000000000000001;
	308	:	0000000000000100;
	309	:	0000000000100101;
	310	:	0000000010011011;
	311	:	0000000101000001;
	312	:	0000000101000100;
	313	:	0000000011101000;
	314	:	1111111111110100;
	315	:	0000000000110001;
	316	:	0000000010101110;
	317	:	0000000001110001;
	318	:	1111111001111011;
	319	:	1111101101001111;
	320	:	1111101001011100;
	321	:	1111110110100111;
	322	:	0000000011101100;
	323	:	0000000111001111;
	324	:	0000000101100111;
	325	:	0000000100010110;
	326	:	0000001010010000;
	327	:	0000010001010001;
	328	:	0000001100000111;
	329	:	0000000011011011;
	330	:	1111111010010110;
	331	:	1111110101001010;
	332	:	1111110101011111;
	333	:	1111111001010110;
	334	:	1111111111011100;
	335	:	0000000000000000;
	336	:	0000000000001010;
	337	:	0000000000111010;
	338	:	0000000011010101;
	339	:	0000000101101001;
	340	:	0000000101001011;
	341	:	0000000100111101;
	342	:	1111111111111100;
	343	:	0000000000110000;
	344	:	0000000001010100;
	345	:	1111111110110110;
	346	:	1111110101000010;
	347	:	1111101011100101;
	348	:	1111101101101011;
	349	:	1111111000001100;
	350	:	0000000011000111;
	351	:	0000000101001100;
	352	:	0000000011011100;
	353	:	0000000101100101;
	354	:	0000001110111011;
	355	:	0000010000001010;
	356	:	0000001001100000;
	357	:	0000000000001100;
	358	:	1111110101010000;
	359	:	1111110010110110;
	360	:	1111110100111110;
	361	:	1111111001000011;
	362	:	1111111111100011;
	363	:	0000000000000010;
	364	:	0000000000001110;
	365	:	0000000000011111;
	366	:	0000000011110000;
	367	:	0000000101111001;
	368	:	0000000100011010;
	369	:	0000000110011011;
	370	:	0000000000001001;
	371	:	1111111111110111;
	372	:	1111111111001111;
	373	:	1111111111001000;
	374	:	1111110111001111;
	375	:	1111110001010101;
	376	:	1111110010000110;
	377	:	1111111101010101;
	378	:	0000000111010110;
	379	:	0000001010010100;
	380	:	0000001011010010;
	381	:	0000001010101111;
	382	:	0000001101100010;
	383	:	0000010000011011;
	384	:	0000001010010010;
	385	:	1111111111000100;
	386	:	1111110011101111;
	387	:	1111110001000110;
	388	:	1111110110010110;
	389	:	1111111001011110;
	390	:	1111111110111100;
	391	:	0000000000000000;
	392	:	0000000000000011;
	393	:	0000000000001111;
	394	:	0000000011010010;
	395	:	0000000110011110;
	396	:	0000000101111000;
	397	:	0000000100000100;
	398	:	0000000001001011;
	399	:	0000000001001101;
	400	:	0000000010101010;
	401	:	0000000100111101;
	402	:	1111111111010111;
	403	:	1111111001100000;
	404	:	1111110111011110;
	405	:	1111111110011100;
	406	:	0000000110001100;
	407	:	0000001010011001;
	408	:	0000001101000010;
	409	:	0000001000100111;
	410	:	0000001011000101;
	411	:	0000001000111101;
	412	:	0000001000010111;
	413	:	0000000001001010;
	414	:	1111110100101110;
	415	:	1111110000111000;
	416	:	1111110110011110;
	417	:	1111111010101011;
	418	:	1111111111000111;
	419	:	1111111111111011;
	420	:	0000000000000001;
	421	:	0000000000100001;
	422	:	0000000011001101;
	423	:	0000000110000011;
	424	:	0000000110011010;
	425	:	0000000110000100;
	426	:	1111111110001111;
	427	:	1111111101111000;
	428	:	0000000010010000;
	429	:	0000000010101111;
	430	:	1111111100110110;
	431	:	1111110111110100;
	432	:	1111110101110000;
	433	:	1111110101111101;
	434	:	1111111110010110;
	435	:	0000000010101001;
	436	:	1111111110101010;
	437	:	0000000010111100;
	438	:	0000000100011111;
	439	:	0000001000011000;
	440	:	0000001000001100;
	441	:	0000000010100101;
	442	:	1111110110011111;
	443	:	1111110010101001;
	444	:	1111110111000100;
	445	:	1111111010101111;
	446	:	1111111111010010;
	447	:	0000000000000001;
	448	:	0000000000000010;
	449	:	0000000001000111;
	450	:	0000000011011010;
	451	:	0000000101001110;
	452	:	0000000010100101;
	453	:	0000000100001000;
	454	:	1111111110001100;
	455	:	1111111001000101;
	456	:	1111111011101110;
	457	:	1111111101000011;
	458	:	1111111010010110;
	459	:	1111110101100010;
	460	:	1111110001001110;
	461	:	1111110011100100;
	462	:	1111111001101111;
	463	:	1111111010110111;
	464	:	1111111000111000;
	465	:	1111111101010111;
	466	:	0000000001111110;
	467	:	0000000110001000;
	468	:	0000000111001101;
	469	:	0000000001000011;
	470	:	1111111001011100;
	471	:	1111110100111101;
	472	:	1111110110111110;
	473	:	1111111100001001;
	474	:	1111111111100000;
	475	:	1111111111111101;
	476	:	0000000000000011;
	477	:	0000000000010110;
	478	:	0000000010001101;
	479	:	0000000011010100;
	480	:	0000000001101111;
	481	:	0000000010011101;
	482	:	1111111100111111;
	483	:	1111111000111001;
	484	:	1111111001001110;
	485	:	1111111000010000;
	486	:	1111110101011001;
	487	:	1111110010111100;
	488	:	1111110100100010;
	489	:	1111110110100110;
	490	:	1111110011011100;
	491	:	1111110100111001;
	492	:	1111111000010011;
	493	:	1111111100101111;
	494	:	0000000010100010;
	495	:	0000000010110101;
	496	:	0000000010111001;
	497	:	0000000000001100;
	498	:	1111111101000011;
	499	:	1111111001110110;
	500	:	1111111011100111;
	501	:	1111111101110011;
	502	:	1111111111011011;
	503	:	0000000000000000;
	504	:	0000000000000011;
	505	:	0000000000000111;
	506	:	0000000001000111;
	507	:	0000000010110000;
	508	:	0000000001110001;
	509	:	0000000001110110;
	510	:	1111111110100010;
	511	:	1111111011010001;
	512	:	1111110110100001;
	513	:	1111110110010101;
	514	:	1111110101110001;
	515	:	1111110111010011;
	516	:	1111110111011110;
	517	:	1111111001001001;
	518	:	1111111000101000;
	519	:	1111110111111001;
	520	:	1111111001001101;
	521	:	1111111111011101;
	522	:	0000000100000101;
	523	:	0000000011111111;
	524	:	0000000110000111;
	525	:	0000000100101001;
	526	:	0000000001000001;
	527	:	1111111110001010;
	528	:	1111111101101111;
	529	:	1111111110100001;
	530	:	1111111111011110;
	531	:	1111111111111101;
	532	:	0000000000000010;
	533	:	0000000000010000;
	534	:	0000000000110010;
	535	:	0000000010000001;
	536	:	0000000001010110;
	537	:	0000000000000110;
	538	:	1111111111010100;
	539	:	1111111101000111;
	540	:	1111111000010000;
	541	:	1111110100110011;
	542	:	1111110011000011;
	543	:	1111110111011001;
	544	:	1111111010101110;
	545	:	1111111101100111;
	546	:	1111111010111000;
	547	:	1111111010101010;
	548	:	1111111101111110;
	549	:	0000000010001000;
	550	:	0000000100010101;
	551	:	0000000100101111;
	552	:	0000000100101101;
	553	:	0000000110011001;
	554	:	0000000011010000;
	555	:	0000000000100000;
	556	:	1111111101111110;
	557	:	1111111111000100;
	558	:	1111111111101001;
	559	:	1111111111111111;
	560	:	0000000000000000;
	561	:	0000000000010001;
	562	:	0000000000100001;
	563	:	0000000001010010;
	564	:	0000000010011100;
	565	:	0000000001010000;
	566	:	0000000000000011;
	567	:	1111111101111001;
	568	:	1111111000011111;
	569	:	1111110100010110;
	570	:	1111110101010010;
	571	:	1111111001001110;
	572	:	1111111100101011;
	573	:	1111111100110011;
	574	:	1111111101111111;
	575	:	1111111111100110;
	576	:	0000000001100010;
	577	:	0000000110100001;
	578	:	0000000110000110;
	579	:	0000000011111001;
	580	:	0000000011011001;
	581	:	0000000010111011;
	582	:	0000000010100010;
	583	:	0000000000011101;
	584	:	1111111110110001;
	585	:	0000000000011000;
	586	:	1111111111111000;
	587	:	0000000000000001;
	588	:	0000000000000010;
	589	:	0000000000001011;
	590	:	0000000000011110;
	591	:	0000000000101111;
	592	:	0000000010111100;
	593	:	0000000011100000;
	594	:	1111111111111110;
	595	:	1111111101001000;
	596	:	1111111000110011;
	597	:	1111110101110000;
	598	:	1111110110100011;
	599	:	1111111010111100;
	600	:	1111111100101111;
	601	:	1111111101011110;
	602	:	0000000000001110;
	603	:	0000000001010010;
	604	:	0000000001110011;
	605	:	0000000110100110;
	606	:	0000001001101010;
	607	:	0000000110011001;
	608	:	0000000101010000;
	609	:	0000000011111110;
	610	:	0000000011111101;
	611	:	0000000001100110;
	612	:	1111111110111010;
	613	:	0000000000011011;
	614	:	0000000000000100;
	615	:	0000000000000110;
	616	:	0000000000000010;
	617	:	0000000000000010;
	618	:	0000000000010010;
	619	:	0000000000101011;
	620	:	0000000001011010;
	621	:	0000000001101100;
	622	:	1111111110001000;
	623	:	1111111101100100;
	624	:	1111111001011110;
	625	:	1111110110100011;
	626	:	1111110110101110;
	627	:	1111111010110101;
	628	:	1111111100001110;
	629	:	1111111110011011;
	630	:	0000000000110111;
	631	:	1111111111100000;
	632	:	0000000001010101;
	633	:	0000000101111001;
	634	:	0000001001110110;
	635	:	0000001001000010;
	636	:	0000001000100101;
	637	:	0000000110010001;
	638	:	0000000101010100;
	639	:	0000000010101010;
	640	:	1111111111101100;
	641	:	0000000000011011;
	642	:	0000000000000101;
	643	:	0000000000000100;
	644	:	0000000000000100;
	645	:	0000000000000010;
	646	:	0000000000001011;
	647	:	0000000000011011;
	648	:	0000000000000110;
	649	:	1111111111000100;
	650	:	1111111011100011;
	651	:	1111111001001100;
	652	:	1111110111011110;
	653	:	1111110111001110;
	654	:	1111111001001101;
	655	:	1111111101010000;
	656	:	1111111111011110;
	657	:	0000000001110101;
	658	:	0000000010001100;
	659	:	0000000000110111;
	660	:	0000000001111101;
	661	:	0000000101110111;
	662	:	0000001001111011;
	663	:	0000001000110110;
	664	:	0000000111110111;
	665	:	0000000110100001;
	666	:	0000000100001100;
	667	:	0000000010000110;
	668	:	0000000000011000;
	669	:	1111111111111101;
	670	:	0000000000000000;
	671	:	0000000000000011;
	672	:	0000000000000010;
	673	:	0000000000000100;
	674	:	0000000000001000;
	675	:	0000000000010101;
	676	:	1111111111110110;
	677	:	1111111111100011;
	678	:	1111111100100010;
	679	:	1111111001110001;
	680	:	1111111000000111;
	681	:	1111111001100010;
	682	:	1111111101010001;
	683	:	1111111111111010;
	684	:	0000000000100110;
	685	:	0000000010000100;
	686	:	0000000011001100;
	687	:	0000000010100110;
	688	:	0000000011010111;
	689	:	0000000110100001;
	690	:	0000001000101001;
	691	:	0000000110111110;
	692	:	0000000101001101;
	693	:	0000000011100100;
	694	:	0000000001110011;
	695	:	0000000001000011;
	696	:	0000000000110011;
	697	:	0000000000000100;
	698	:	0000000000000010;
	699	:	0000000000000101;
	700	:	0000000000000010;
	701	:	0000000000000100;
	702	:	0000000000000101;
	703	:	0000000000000110;
	704	:	0000000000001011;
	705	:	1111111111100001;
	706	:	1111111110010101;
	707	:	1111111101001011;
	708	:	1111111100111001;
	709	:	1111111101011011;
	710	:	1111111111011010;
	711	:	1111111111100000;
	712	:	1111111111111100;
	713	:	0000000000110101;
	714	:	0000000001101101;
	715	:	0000000010100001;
	716	:	0000000011110000;
	717	:	0000000101010010;
	718	:	0000000100110110;
	719	:	0000000011100101;
	720	:	0000000001111001;
	721	:	0000000001000010;
	722	:	0000000000011100;
	723	:	0000000000010000;
	724	:	0000000000011100;
	725	:	0000000000000110;
	726	:	0000000000000100;
	727	:	0000000000000000;
	728	:	0000000000000100;
	729	:	0000000000000011;
	730	:	0000000000000011;
	731	:	0000000000000000;
	732	:	0000000000000011;
	733	:	1111111111111001;
	734	:	1111111111101101;
	735	:	1111111111011000;
	736	:	1111111111011110;
	737	:	1111111111011111;
	738	:	1111111111110101;
	739	:	1111111111101100;
	740	:	1111111111101010;
	741	:	0000000000011000;
	742	:	0000000000100111;
	743	:	0000000000110001;
	744	:	0000000001110010;
	745	:	0000000001100101;
	746	:	0000000000100100;
	747	:	0000000000100001;
	748	:	0000000000011111;
	749	:	0000000000010010;
	750	:	0000000000001010;
	751	:	0000000000001000;
	752	:	0000000000001010;
	753	:	0000000000001100;
	754	:	0000000000000101;
	755	:	0000000000000010;
	756	:	0000000000000011;
	757	:	0000000000000001;
	758	:	0000000000000000;
	759	:	0000000000000000;
	760	:	0000000000000000;
	761	:	0000000000000010;
	762	:	0000000000000010;
	763	:	1111111111111111;
	764	:	1111111111111111;
	765	:	0000000000000111;
	766	:	0000000000000011;
	767	:	0000000000000110;
	768	:	0000000000001010;
	769	:	0000000000001110;
	770	:	0000000000000010;
	771	:	0000000000000100;
	772	:	0000000000000011;
	773	:	0000000000000110;
	774	:	0000000000000000;
	775	:	0000000000000100;
	776	:	0000000000000011;
	777	:	0000000000000000;
	778	:	0000000000000011;
	779	:	0000000000000011;
	780	:	0000000000000100;
	781	:	0000000000000010;
	782	:	0000000000000101;
	783	:	0000000000000000;
END;
