-- Copyright (C) 2018  Intel Corporation. All rights reserved.
-- Your use of Intel Corporation's design tools, logic functions
-- and other software and tools, and its AMPP partner logic
-- functions, and any output files from any of the foregoing
-- (including device programming or simulation files), and any
-- associated documentation or information are expressly subject
-- to the terms and conditions of the Intel Program License
-- Subscription Agreement, the Intel Quartus Prime License Agreement,
-- the Intel FPGA IP License Agreement, or other applicable license
-- agreement, including, without limitation, that your use is for
-- the sole purpose of programming logic devices manufactured by
-- Intel and sold by Intel or its authorized distributors.  Please
-- refer to the applicable agreement for further details.
 
-- Quartus Prime generated Memory Initialization File (.mif)

WIDTH=16;
DEPTH=1024;

ADDRESS_RADIX=UNS;
DATA_RADIX=BIN;

CONTENT BEGIN
	0	:	1000100101100100;
	1	:	0000011011000001;
	2	:	0000111000110111;
	3	:	1000011111100010;
	4	:	1001001101001000;
	5	:	1000000101010110;
	6	:	0000001010111010;
	7	:	1000011000110010;
	8	:	1000110111101111;
	9	:	1000011011010000;
	10	:	1000110101110000;
	11	:	0000100101010111;
	12	:	1000111011010010;
	13	:	0000111001000100;
	14	:	0000000101011011;
	15	:	0001100011000100;
	16	:	1000010100101111;
	17	:	1000110101110101;
	18	:	1001010111100001;
	19	:	0000010110100001;
	20	:	1000101111111100;
	21	:	1000000111110001;
	22	:	0000000001110101;
	23	:	0000000010111010;
	24	:	1000100010011111;
	25	:	1001011000110000;
	26	:	1000011000000010;
	27	:	1000010010000100;
	28	:	0000100111100110;
	29	:	0000101011110011;
	30	:	1001010010011000;
	31	:	0000010011010010;
	32	:	0000011001011111;
	33	:	0000011100011001;
	34	:	1000110111101010;
	35	:	0000011011111000;
	36	:	1000100100011100;
	37	:	1000111101001110;
	38	:	0000010111101001;
	39	:	1000011000101000;
	40	:	1000001101110110;
	41	:	1000111110001100;
	42	:	1000001011001010;
	43	:	0000001110111000;
	44	:	0000001101000111;
	45	:	1001100101001010;
	46	:	1000111101101111;
	47	:	0000001010110001;
	48	:	0000001011111110;
	49	:	0000000001110111;
	50	:	1000111011110010;
	51	:	1000011011011101;
	52	:	0000010011100100;
	53	:	1000000110111101;
	54	:	0000010111000111;
	55	:	1001011111110110;
	56	:	1000111111011010;
	57	:	1000001100100001;
	58	:	0000110010111111;
	59	:	0000011001001000;
	60	:	1000101110010111;
	61	:	1000010101111010;
	62	:	1000001100100100;
	63	:	0000001101011110;
	64	:	0001001001111101;
	65	:	0000111001001111;
	66	:	1000101111101101;
	67	:	1000011111110100;
	68	:	1000110010011111;
	69	:	0000001110111100;
	70	:	0000000111100000;
	71	:	1000000111000000;
	72	:	1000101100000111;
	73	:	1000100001101111;
	74	:	1000101110011010;
	75	:	0000011110010100;
	76	:	0000101111001011;
	77	:	1000010001111010;
	78	:	1000111001101100;
	79	:	1000001111001010;
	80	:	0000011110001110;
	81	:	1000100110101101;
	82	:	1000000001111110;
	83	:	0000000000011111;
	84	:	1000011010111100;
	85	:	1000110100010101;
	86	:	1000001011110010;
	87	:	0000101100101010;
	88	:	1001001001011000;
	89	:	1001000000010100;
	90	:	1000111011011110;
	91	:	0000100010101110;
	92	:	1000100110011011;
	93	:	1000101010010111;
	94	:	1000011110010000;
	95	:	0000110001110111;
	96	:	0000100111101011;
	97	:	1000001001001101;
	98	:	0000001100000010;
	99	:	1000011101110000;
	100	:	1000010110001000;
	101	:	1000100010001101;
	102	:	1001010001110000;
	103	:	1000000110111110;
	104	:	1000011111010110;
	105	:	1000110101101110;
	106	:	0000100100000001;
	107	:	1000111011011100;
	108	:	0000101111011110;
	109	:	0000001100010101;
	110	:	1000100100010110;
	111	:	0001001000000010;
	112	:	1000101100000100;
	113	:	1000010010011101;
	114	:	0000010100010111;
	115	:	0000010101100010;
	116	:	0000001001011010;
	117	:	1000010001001110;
	118	:	1000101100101001;
	119	:	0000010011001000;
	120	:	1000110000100100;
	121	:	0000001001100101;
	122	:	1000010100111101;
	123	:	0000111000100001;
	124	:	1000001111010000;
	125	:	0001001101110101;
	126	:	1000101100110011;
	127	:	1000111010101001;
	128	:	0000010100011010;
	129	:	1000010011010001;
	130	:	1000101100011010;
	131	:	1000000011110111;
	132	:	1000010011111100;
	133	:	1000100010011001;
	134	:	1000100110100100;
	135	:	0000000000101100;
	136	:	1000100000010100;
	137	:	0000101111100000;
	138	:	1000100111010100;
	139	:	0001001101110011;
	140	:	0000010010010001;
	141	:	1001000010001000;
	142	:	0000011100010100;
	143	:	0000010000101010;
	144	:	1000111101110110;
	145	:	0000100001000110;
	146	:	1001011000010000;
	147	:	1000001010000011;
	148	:	1000010100010001;
	149	:	0000000000011110;
	150	:	0000101011010000;
	151	:	1000110100011010;
	152	:	0001000010100001;
	153	:	1000111111010111;
	154	:	1000000000100110;
	155	:	1000111100111001;
	156	:	0000001100111010;
	157	:	1000101000110101;
	158	:	1001001001001010;
	159	:	0000011011001101;
	160	:	0000011000101100;
	161	:	1000111000011111;
	162	:	1001011111100100;
	163	:	1000010110110111;
	164	:	0000010001101101;
	165	:	0000000011101010;
	166	:	0000000111111000;
	167	:	1000101100101001;
	168	:	0000000011000111;
	169	:	1000000011000111;
	170	:	1000011011100000;
	171	:	0000000101010111;
	172	:	1000111001100110;
	173	:	0000010110011000;
	174	:	1000011011110111;
	175	:	1000010000111011;
	176	:	1000100000101001;
	177	:	0000110111100111;
	178	:	1000100110000100;
	179	:	1000011010011100;
	180	:	1000101101101110;
	181	:	0000101010101100;
	182	:	0000001000010101;
	183	:	1000010100011110;
	184	:	1001001110000000;
	185	:	0000011000010110;
	186	:	0000110001000111;
	187	:	1000011010100000;
	188	:	1000110011000000;
	189	:	1000010001110101;
	190	:	1000011001101010;
	191	:	0001011011010011;
	192	:	1000011100111110;
	193	:	1000001001110000;
	194	:	1000000100110011;
	195	:	0000000110110101;
	196	:	1000010010010100;
	197	:	0000000000100011;
	198	:	1000101001111010;
	199	:	1000000001110001;
	200	:	1000100011011011;
	201	:	0000110100111100;
	202	:	1000101101001100;
	203	:	1000000011001001;
	204	:	1000000100010101;
	205	:	0000000111010111;
	206	:	1000001010100001;
	207	:	0000101110010100;
	208	:	1000100001011100;
	209	:	1000011010110011;
	210	:	0000011011011101;
	211	:	1001001110110110;
	212	:	1000111000110101;
	213	:	1001100000001001;
	214	:	1000001000010011;
	215	:	0000011011000000;
	216	:	0000010001000001;
	217	:	1000000100001010;
	218	:	1000011001100010;
	219	:	0000001000001000;
	220	:	0000100100010000;
	221	:	1000100010111011;
	222	:	1000010101001111;
	223	:	1000101000001110;
	224	:	1000011011001011;
	225	:	1000001100000000;
	226	:	0000011101101110;
	227	:	1000000111100011;
	228	:	1000011111000110;
	229	:	1000000000011110;
	230	:	1000110100011001;
	231	:	0000001010011000;
	232	:	1000001100101110;
	233	:	1000001101111010;
	234	:	0000110111110101;
	235	:	1000001001110111;
	236	:	0000011111001011;
	237	:	1000100001001110;
	238	:	0000000011110010;
	239	:	1001111001101001;
	240	:	1001001101100001;
	241	:	1000001111101100;
	242	:	1000101110001011;
	243	:	0000010110010000;
	244	:	0000001100100101;
	245	:	1000010001111101;
	246	:	1000100011000000;
	247	:	1000010101110101;
	248	:	0000000111100110;
	249	:	0000001011101110;
	250	:	0000010010101000;
	251	:	1000010110010001;
	252	:	0000111001100011;
	253	:	0000001001000010;
	254	:	1000101101000010;
	255	:	1000011000011100;
	256	:	1000111010101000;
	257	:	1000011110110010;
	258	:	1000110010001010;
	259	:	1000100110000101;
	260	:	1000001100010111;
	261	:	1000010101000100;
	262	:	0000001100100110;
	263	:	1000010000000101;
	264	:	0001000100000100;
	265	:	0000000000111000;
	266	:	1000011100111101;
	267	:	0000100001010100;
	268	:	1000101000010011;
	269	:	1000110110011100;
	270	:	1000011110110111;
	271	:	0000000010001110;
	272	:	1000010011100010;
	273	:	1000101111110101;
	274	:	0000011000011111;
	275	:	0000000000100111;
	276	:	1000000011001101;
	277	:	0001001100101101;
	278	:	1000011100000011;
	279	:	1000111001001011;
	280	:	1000011111000010;
	281	:	1000101101101000;
	282	:	1000000011001000;
	283	:	1001001001110000;
	284	:	1000001010011000;
	285	:	1000001111100111;
	286	:	0000000010111101;
	287	:	1000011101111011;
	288	:	0000110100001010;
	289	:	0000011111000010;
	290	:	1000110010011100;
	291	:	0000010011010111;
	292	:	1000001000011000;
	293	:	0000101100000101;
	294	:	1000101010111101;
	295	:	1001011011011000;
	296	:	1000010000101111;
	297	:	1000000010000111;
	298	:	1000010110000011;
	299	:	0000001000111110;
	300	:	0000001111110001;
	301	:	1000011001110010;
	302	:	1000101110101010;
	303	:	0000101101100101;
	304	:	1000111000100000;
	305	:	1000010010000000;
	306	:	1000101100101001;
	307	:	1000101001101001;
	308	:	0000000000111100;
	309	:	0000011011000100;
	310	:	1000110010110010;
	311	:	0000010100101111;
	312	:	0000011110011100;
	313	:	1001000110010101;
	314	:	0000001010110010;
	315	:	1000011101000111;
	316	:	0000011111101010;
	317	:	1000001111010011;
	318	:	0000101100011101;
	319	:	1000111100100010;
	320	:	0000000111101000;
	321	:	1000010001110110;
	322	:	1000010111001101;
	323	:	1001000111110110;
	324	:	1000101001010010;
	325	:	0000001110011000;
	326	:	1000111010101000;
	327	:	1000000011001011;
	328	:	0000011000010100;
	329	:	0000101000001001;
	330	:	0000011011111001;
	331	:	1000100110110100;
	332	:	1000100111000100;
	333	:	1000111010101111;
	334	:	0000101100110001;
	335	:	0000110001000111;
	336	:	1000111000111101;
	337	:	0000111001010101;
	338	:	1001010011010101;
	339	:	1000110110000010;
	340	:	1000101000110101;
	341	:	1000101011100101;
	342	:	0000000010001110;
	343	:	1000010011000100;
	344	:	0000110110100111;
	345	:	1000010011001000;
	346	:	0000011110110100;
	347	:	1000110000101000;
	348	:	1001001000111110;
	349	:	0000101110000010;
	350	:	0000010010111110;
	351	:	1000111101011101;
	352	:	0000101010010011;
	353	:	0000011001101111;
	354	:	1000110011011110;
	355	:	0001000100110000;
	356	:	1001010110001110;
	357	:	1000001101011111;
	358	:	1000000010011010;
	359	:	1001101000000001;
	360	:	1001001011011010;
	361	:	0000101000011001;
	362	:	1000110100010011;
	363	:	1000011010101100;
	364	:	1000010110010100;
	365	:	0000100110001101;
	366	:	0000101110011111;
	367	:	1000011100101110;
	368	:	0000010011110111;
	369	:	1000011011110001;
	370	:	0000100001000110;
	371	:	1001000101001110;
	372	:	0000111101001011;
	373	:	1001001110000011;
	374	:	1000101100001111;
	375	:	1001000000111101;
	376	:	1000011000001000;
	377	:	0000011101101001;
	378	:	1000001101001010;
	379	:	1000111111110110;
	380	:	1000011010111000;
	381	:	0000000011000110;
	382	:	1000101001111010;
	383	:	0000010000000010;
	384	:	1000110100010100;
	385	:	1000000100010011;
	386	:	0000011101111110;
	387	:	1000001000101110;
	388	:	1001011100101001;
	389	:	0000001010100011;
	390	:	1000100000011101;
	391	:	0000011011001000;
	392	:	1000100111100010;
	393	:	1000001010011101;
	394	:	1000101001110110;
	395	:	0000011101010100;
	396	:	1000011000110000;
	397	:	0000111100000010;
	398	:	1000100110001110;
	399	:	1000001010101111;
	400	:	1000101101000001;
	401	:	0000100000010101;
	402	:	1000100011010000;
	403	:	1000100111111111;
	404	:	0000011110111000;
	405	:	0000000111100001;
	406	:	1000011110110001;
	407	:	1000010100010001;
	408	:	0000010110010110;
	409	:	1000010100101101;
	410	:	1000111110000000;
	411	:	0000010101000001;
	412	:	0000111110100111;
	413	:	1001000110000011;
	414	:	1000010000001001;
	415	:	1000000110111100;
	416	:	0000100100101000;
	417	:	1000000000001001;
	418	:	1001010001111011;
	419	:	1000011011110101;
	420	:	0000000010110011;
	421	:	1000111010010111;
	422	:	1000100001000000;
	423	:	0000010101110100;
	424	:	1000000100011010;
	425	:	1000111111101111;
	426	:	1000010110101011;
	427	:	1001010101001010;
	428	:	0000000010110101;
	429	:	0000100000111100;
	430	:	1000101000010111;
	431	:	0000011011100100;
	432	:	1000011001000100;
	433	:	1000110000100110;
	434	:	0000010100010000;
	435	:	1000100010111101;
	436	:	1000101000001110;
	437	:	0000011101111101;
	438	:	1000011111110111;
	439	:	0000010010000100;
	440	:	1000001101010101;
	441	:	0000100011100000;
	442	:	1000000100110110;
	443	:	0000011100100110;
	444	:	1001101000100100;
	445	:	1001001100000011;
	446	:	0000110011101111;
	447	:	1001000001011101;
	448	:	0000101110010110;
	449	:	1001001100010010;
	450	:	1000011111010001;
	451	:	0001000000000111;
	452	:	0000010001010111;
	453	:	1000110001001100;
	454	:	0000000111110110;
	455	:	0000000001100110;
	456	:	1000001001110010;
	457	:	0000001001000001;
	458	:	1000100011011100;
	459	:	1000000101000000;
	460	:	1000110111101100;
	461	:	0000000110000000;
	462	:	1000110010001100;
	463	:	1000011000010000;
	464	:	0000010101110110;
	465	:	1000110001111110;
	466	:	1000110100011110;
	467	:	0001000100100110;
	468	:	1001001100101100;
	469	:	0001000100010111;
	470	:	0000001001010100;
	471	:	1000100000111101;
	472	:	1000101111100011;
	473	:	0000010101011000;
	474	:	1001001101111010;
	475	:	1000000000000101;
	476	:	1000110001100011;
	477	:	0000010110010100;
	478	:	1001010000110011;
	479	:	0000110011000011;
	480	:	1000010000011100;
	481	:	0001000010000011;
	482	:	1000010100101001;
	483	:	1000010000000010;
	484	:	1000000011011011;
	485	:	0000011001110000;
	486	:	1000000101010101;
	487	:	0000000000000011;
	488	:	1000101011110001;
	489	:	0000000001101110;
	490	:	1000101111101110;
	491	:	0000000100010111;
	492	:	1000000001001110;
	493	:	0000010110101001;
	494	:	1000100011101110;
	495	:	0000001000111101;
	496	:	1000010010011110;
	497	:	0000110011110011;
	498	:	1000011110010100;
	499	:	1000110011001110;
	500	:	0000101001011100;
	501	:	1000100101100110;
	502	:	0000001111000001;
	503	:	1000001010001011;
	504	:	1001000110000010;
	505	:	1000010101101111;
	506	:	0000101111100111;
	507	:	1000101101110100;
	508	:	1000111100101011;
	509	:	1000010011000110;
	510	:	0000011010110110;
	511	:	0000000011000101;
	512	:	0000000000010101;
	513	:	1000110100111101;
	514	:	1000101101101101;
	515	:	1000011010100101;
	516	:	1000110001111010;
	517	:	0000100100011100;
	518	:	0000010100010001;
	519	:	1001001111000101;
	520	:	1000000001011011;
	521	:	1000101111011011;
	522	:	0001000000110110;
	523	:	1001100011100100;
	524	:	1000001011011110;
	525	:	0000000100010001;
	526	:	0000000110101010;
	527	:	1001000011101000;
	528	:	0000100110101100;
	529	:	0000000001000111;
	530	:	1000101100110101;
	531	:	1000000100010001;
	532	:	1000101101110100;
	533	:	1000101011011101;
	534	:	0000000000011110;
	535	:	0000011110011100;
	536	:	1001000100111000;
	537	:	0000010110000010;
	538	:	0000010000000011;
	539	:	0000000101111000;
	540	:	0000011011111111;
	541	:	1000100000110010;
	542	:	1000011011011111;
	543	:	0000000101010101;
	544	:	1000101010000100;
	545	:	1000000010011110;
	546	:	0000000001110010;
	547	:	0000111110100110;
	548	:	1000101111000100;
	549	:	1001001100011111;
	550	:	1000100111111110;
	551	:	0000001101000000;
	552	:	0000011001101111;
	553	:	0000110110101011;
	554	:	0000010011010101;
	555	:	1000101001001011;
	556	:	1000111100111010;
	557	:	1000000111100000;
	558	:	1000110100010001;
	559	:	1000101011110100;
	560	:	1000001110100110;
	561	:	0000010111111001;
	562	:	1000000000101111;
	563	:	0000101111100110;
	564	:	1000011010010100;
	565	:	0000010101111000;
	566	:	1000110011101101;
	567	:	1000100010001011;
	568	:	1001000000101111;
	569	:	1000011000100111;
	570	:	1000110010100000;
	571	:	1000100111101000;
	572	:	0000000011110001;
	573	:	1000110001100000;
	574	:	0000100010001011;
	575	:	1000011111101010;
	576	:	0000001001010100;
	577	:	0000111101000100;
	578	:	1000111100111111;
	579	:	1000010010100100;
	580	:	1000110101010010;
	581	:	1000000111000001;
	582	:	1000011111000101;
	583	:	1000100100110000;
	584	:	0000101011010100;
	585	:	1000110111101000;
	586	:	0000110100111100;
	587	:	1000110110100110;
	588	:	1001010101010011;
	589	:	0001001111011001;
	590	:	0000000111011110;
	591	:	1000110101110101;
	592	:	1001010001100101;
	593	:	1000100010100111;
	594	:	0000010010001111;
	595	:	0000011101011110;
	596	:	0000011101001111;
	597	:	1000100011110101;
	598	:	1000001000000101;
	599	:	1000001101110011;
	600	:	0000010100011001;
	601	:	1001001010000110;
	602	:	0000100001110100;
	603	:	0000001110011111;
	604	:	1000100100111101;
	605	:	1000111010011101;
	606	:	1000000001000010;
	607	:	0000010111111111;
	608	:	1000100011001011;
	609	:	1000111010101100;
	610	:	0000010001110000;
	611	:	1000100101111011;
	612	:	1000111111111101;
	613	:	1000110011000110;
	614	:	1000011101110101;
	615	:	0000010011100011;
	616	:	0000010001111110;
	617	:	1000110101000010;
	618	:	0000101110111010;
	619	:	0000000101000010;
	620	:	0000010000111001;
	621	:	1000100011100110;
	622	:	1000000001000101;
	623	:	1000100011001110;
	624	:	0000101110100010;
	625	:	0001000111000001;
	626	:	1000111000111010;
	627	:	1000010100101110;
	628	:	1000101111101001;
	629	:	1001011100100010;
	630	:	1000100001100100;
	631	:	1000100100100010;
	632	:	1000001011011010;
	633	:	1000010011000111;
	634	:	0001100001001110;
	635	:	0000010000001101;
	636	:	0000101001011101;
	637	:	1000010110101001;
	638	:	1000111011010100;
	639	:	1001101100000001;
END;
