-- Copyright (C) 2018  Intel Corporation. All rights reserved.
-- Your use of Intel Corporation's design tools, logic functions
-- and other software and tools, and its AMPP partner logic
-- functions, and any output files from any of the foregoing
-- (including device programming or simulation files), and any
-- associated documentation or information are expressly subject
-- to the terms and conditions of the Intel Program License
-- Subscription Agreement, the Intel Quartus Prime License Agreement,
-- the Intel FPGA IP License Agreement, or other applicable license
-- agreement, including, without limitation, that your use is for
-- the sole purpose of programming logic devices manufactured by
-- Intel and sold by Intel or its authorized distributors.  Please
-- refer to the applicable agreement for further details.
 
-- Quartus Prime generated Memory Initialization File (.mif)

WIDTH=16;
DEPTH=128;

ADDRESS_RADIX=UNS;
DATA_RADIX=BIN;

CONTENT BEGIN
	0	:	0000000000000001;
	1	:	0000000000000001;
	2	:	0000000000000001;
	3	:	0000000000000001;
	4	:	0000000000000001;
	5	:	0000000000000001;
	6	:	0000000000000001;
	7	:	0000000000000001;
	8	:	0000000000000001;
	9	:	0000000000000001;
	10	:	0000000000000001;
	11	:	0000000000000001;
	12	:	0000000000000001;
	13	:	0000000000000001;
	14	:	0000000000000001;
	15	:	0000000000000001;
	16	:	0000000000000001;
	17	:	0000000000000001;
	18	:	0000000000000001;
	19	:	0000000000000001;
	20	:	0000000000000001;
	21	:	0000000000000001;
	22	:	0000000000000001;
	23	:	0000000000000001;
	24	:	0000000000000001;
	25	:	0000000000000001;
	26	:	0000000000000001;
	27	:	0000000000000001;
	28	:	0000000000000001;
	29	:	0000000000000001;
	30	:	0000000000000001;
	31	:	0000000000000001;
	32	:	0000000000000001;
	33	:	0000000000000001;
	34	:	0000000000000001;
	35	:	0000000000000001;
	36	:	0000000000000001;
	37	:	0000000000000001;
	38	:	0000000000000001;
	39	:	0000000000000001;
	40	:	0000000000000001;
	41	:	0000000000000001;
	42	:	0000000000000001;
	43	:	0000000000000001;
	44	:	0000000000000001;
	45	:	0000000000000001;
	46	:	0000000000000001;
	47	:	0000000000000001;
	48	:	0000000000000001;
	49	:	0000000000000001;
	50	:	0000000000000001;
	51	:	0000000000000001;
	52	:	0000000000000001;
	53	:	0000000000000001;
	54	:	0000000000000001;
	55	:	0000000000000001;
	56	:	0000000000000001;
	57	:	0000000000000001;
	58	:	0000000000000001;
	59	:	0000000000000001;
	60	:	0000000000000001;
	61	:	0000000000000001;
	62	:	0000000000000001;
	63	:	0000000000000001;
	64	:	0000000000000001;
	65	:	0000000000000001;
	66	:	0000000000000001;
	67	:	0000000000000001;
	68	:	0000000000000001;
	69	:	0000000000000001;
	70	:	0000000000000001;
	71	:	0000000000000001;
	72	:	0000000000000001;
	73	:	0000000000000001;
	74	:	0000000000000001;
	75	:	0000000000000001;
	76	:	0000000000000001;
	77	:	0000000000000001;
	78	:	0000000000000001;
	79	:	0000000000000001;
	80	:	0000000000000001;
	81	:	0000000000000001;
	82	:	0000000000000001;
	83	:	0000000000000001;
	84	:	0000000000000001;
	85	:	0000000000000001;
	86	:	0000000000000001;
	87	:	0000000000000001;
	88	:	0000000000000001;
	89	:	0000000000000001;
	90	:	0000000000000001;
	91	:	0000000000000001;
	92	:	0000000000000001;
	93	:	0000000000000001;
	94	:	0000000000000001;
	95	:	0000000000000001;
	96	:	0000000000000001;
	97	:	0000000000000001;
	98	:	0000000000000001;
	99	:	0000000000000001;
	100	:	0000000000000001;
	101	:	0000000000000001;
	102	:	0000000000000001;
	103	:	0000000000000001;
	104	:	0000000000000001;
	105	:	0000000000000001;
	106	:	0000000000000001;
	107	:	0000000000000001;
	108	:	0000000000000001;
	109	:	0000000000000001;
	110	:	0000000000000001;
	111	:	0000000000000001;
	112	:	0000000000000001;
	113	:	0000000000000001;
	114	:	0000000000000001;
	115	:	0000000000000001;
	116	:	0000000000000001;
	117	:	0000000000000001;
	118	:	0000000000000001;
	119	:	0000000000000001;
	120	:	0000000000000001;
	121	:	0000000000000001;
	122	:	0000000000000001;
	123	:	0000000000000001;
	124	:	0000000000000001;
	125	:	0000000000000001;
	126	:	0000000000000001;
	127	:	0000000000000001;
END;
